{
  "version": "1.0",
  "truncation": null,
  "padding": null,
  "added_tokens": [
    {
      "id": 0,
      "content": "[PAD]",
      "single_word": false,
      "lstrip": false,
      "rstrip": false,
      "normalized": false,
      "special": true
    },
    {
      "id": 1,
      "content": "[UNK]",
      "single_word": false,
      "lstrip": false,
      "rstrip": false,
      "normalized": false,
      "special": true
    },
    {
      "id": 2,
      "content": "[BOS]",
      "single_word": false,
      "lstrip": false,
      "rstrip": false,
      "normalized": false,
      "special": true
    },
    {
      "id": 3,
      "content": "[EOS]",
      "single_word": false,
      "lstrip": false,
      "rstrip": false,
      "normalized": false,
      "special": true
    }
  ],
  "normalizer": null,
  "pre_tokenizer": {
    "type": "Whitespace"
  },
  "post_processor": null,
  "decoder": null,
  "model": {
    "type": "BPE",
    "dropout": null,
    "unk_token": "[UNK]",
    "continuing_subword_prefix": null,
    "end_of_word_suffix": null,
    "fuse_unk": false,
    "byte_fallback": false,
    "ignore_merges": false,
    "vocab": {
      "[PAD]": 0,
      "[UNK]": 1,
      "[BOS]": 2,
      "[EOS]": 3,
      "!": 4,
      "\"": 5,
      "#": 6,
      "$": 7,
      "%": 8,
      "&": 9,
      "'": 10,
      "(": 11,
      ")": 12,
      "*": 13,
      "+": 14,
      ",": 15,
      "-": 16,
      ".": 17,
      "/": 18,
      "0": 19,
      "1": 20,
      "2": 21,
      "3": 22,
      "4": 23,
      "5": 24,
      "6": 25,
      "7": 26,
      "8": 27,
      "9": 28,
      ":": 29,
      ";": 30,
      "<": 31,
      "=": 32,
      ">": 33,
      "?": 34,
      "@": 35,
      "A": 36,
      "B": 37,
      "C": 38,
      "D": 39,
      "E": 40,
      "F": 41,
      "G": 42,
      "H": 43,
      "I": 44,
      "J": 45,
      "K": 46,
      "L": 47,
      "M": 48,
      "N": 49,
      "O": 50,
      "P": 51,
      "Q": 52,
      "R": 53,
      "S": 54,
      "T": 55,
      "U": 56,
      "V": 57,
      "W": 58,
      "X": 59,
      "Y": 60,
      "Z": 61,
      "[": 62,
      "\\": 63,
      "]": 64,
      "^": 65,
      "_": 66,
      "`": 67,
      "a": 68,
      "b": 69,
      "c": 70,
      "d": 71,
      "e": 72,
      "f": 73,
      "g": 74,
      "h": 75,
      "i": 76,
      "j": 77,
      "k": 78,
      "l": 79,
      "m": 80,
      "n": 81,
      "o": 82,
      "p": 83,
      "q": 84,
      "r": 85,
      "s": 86,
      "t": 87,
      "u": 88,
      "v": 89,
      "w": 90,
      "x": 91,
      "y": 92,
      "z": 93,
      "{": 94,
      "|": 95,
      "}": 96,
      "~": 97,
      "": 98,
      "": 99,
      "": 100,
      "": 101,
      "": 102,
      "": 103,
      "": 104,
      "": 105,
      "": 106,
      "": 107,
      "": 108,
      "": 109,
      "¡": 110,
      "¢": 111,
      "£": 112,
      "¤": 113,
      "¥": 114,
      "§": 115,
      "¨": 116,
      "©": 117,
      "ª": 118,
      "«": 119,
      "¬": 120,
      "­": 121,
      "®": 122,
      "¯": 123,
      "°": 124,
      "±": 125,
      "²": 126,
      "³": 127,
      "´": 128,
      "µ": 129,
      "¶": 130,
      "·": 131,
      "¸": 132,
      "¹": 133,
      "º": 134,
      "»": 135,
      "¼": 136,
      "½": 137,
      "¿": 138,
      "À": 139,
      "Á": 140,
      "Ã": 141,
      "Ä": 142,
      "Å": 143,
      "Æ": 144,
      "Ç": 145,
      "É": 146,
      "Ñ": 147,
      "Ò": 148,
      "Ó": 149,
      "Õ": 150,
      "Ö": 151,
      "×": 152,
      "Ø": 153,
      "Ú": 154,
      "Ü": 155,
      "Þ": 156,
      "ß": 157,
      "à": 158,
      "á": 159,
      "â": 160,
      "ã": 161,
      "ä": 162,
      "å": 163,
      "æ": 164,
      "ç": 165,
      "è": 166,
      "é": 167,
      "ê": 168,
      "ë": 169,
      "ì": 170,
      "í": 171,
      "î": 172,
      "ï": 173,
      "ð": 174,
      "ñ": 175,
      "ò": 176,
      "ó": 177,
      "ô": 178,
      "õ": 179,
      "ö": 180,
      "÷": 181,
      "ø": 182,
      "ù": 183,
      "ú": 184,
      "ü": 185,
      "ý": 186,
      "þ": 187,
      "ÿ": 188,
      "Ă": 189,
      "ă": 190,
      "ą": 191,
      "Ć": 192,
      "ć": 193,
      "Č": 194,
      "č": 195,
      "Đ": 196,
      "đ": 197,
      "ę": 198,
      "ě": 199,
      "ğ": 200,
      "ħ": 201,
      "ī": 202,
      "Ĭ": 203,
      "ĭ": 204,
      "İ": 205,
      "ı": 206,
      "Ł": 207,
      "ł": 208,
      "ń": 209,
      "ņ": 210,
      "ő": 211,
      "Œ": 212,
      "œ": 213,
      "Ř": 214,
      "ř": 215,
      "ś": 216,
      "Ş": 217,
      "ş": 218,
      "Š": 219,
      "š": 220,
      "ũ": 221,
      "ů": 222,
      "ű": 223,
      "Ÿ": 224,
      "ż": 225,
      "Ž": 226,
      "ž": 227,
      "Ɛ": 228,
      "ƞ": 229,
      "Ɵ": 230,
      "ǁ": 231,
      "ǂ": 232,
      "ǎ": 233,
      "ǐ": 234,
      "ǣ": 235,
      "ǥ": 236,
      "ǫ": 237,
      "Ȁ": 238,
      "Ș": 239,
      "ș": 240,
      "ȝ": 241,
      "Ȧ": 242,
      "ɑ": 243,
      "ɛ": 244,
      "ɸ": 245,
      "ʹ": 246,
      "ʺ": 247,
      "ʼ": 248,
      "˂": 249,
      "˃": 250,
      "˄": 251,
      "˅": 252,
      "ˆ": 253,
      "ˇ": 254,
      "ˈ": 255,
      "ˉ": 256,
      "˘": 257,
      "˙": 258,
      "˚": 259,
      "˛": 260,
      "˜": 261,
      "˫": 262,
      "̀": 263,
      "́": 264,
      "̂": 265,
      "̃": 266,
      "̄": 267,
      "̅": 268,
      "̆": 269,
      "̇": 270,
      "̈": 271,
      "̊": 272,
      "̌": 273,
      "̟": 274,
      "̧": 275,
      "̶": 276,
      "̸": 277,
      "Ͳ": 278,
      "ͳ": 279,
      "·": 280,
      "Β": 281,
      "Γ": 282,
      "Δ": 283,
      "Ε": 284,
      "Η": 285,
      "Θ": 286,
      "Λ": 287,
      "Μ": 288,
      "Ξ": 289,
      "Π": 290,
      "Σ": 291,
      "Τ": 292,
      "Υ": 293,
      "Φ": 294,
      "Ψ": 295,
      "Ω": 296,
      "α": 297,
      "β": 298,
      "γ": 299,
      "δ": 300,
      "ε": 301,
      "ζ": 302,
      "η": 303,
      "θ": 304,
      "κ": 305,
      "λ": 306,
      "μ": 307,
      "ν": 308,
      "ξ": 309,
      "ο": 310,
      "π": 311,
      "ρ": 312,
      "σ": 313,
      "τ": 314,
      "υ": 315,
      "φ": 316,
      "χ": 317,
      "ψ": 318,
      "ω": 319,
      "ό": 320,
      "ϑ": 321,
      "ϕ": 322,
      "ϖ": 323,
      "ϱ": 324,
      "ϴ": 325,
      "ϵ": 326,
      "Ќ": 327,
      "А": 328,
      "В": 329,
      "Г": 330,
      "Е": 331,
      "М": 332,
      "Н": 333,
      "О": 334,
      "С": 335,
      "Т": 336,
      "а": 337,
      "б": 338,
      "е": 339,
      "с": 340,
      "х": 341,
      "ғ": 342,
      "ҫ": 343,
      "Ӏ": 344,
      "Ө": 345,
      "Ԑ": 346,
      "Ԣ": 347,
      "՜": 348,
      "׀": 349,
      "כ": 350,
      "׬": 351,
      "׽": 352,
      "ٮ": 353,
      "ٯ": 354,
      "ۯ": 355,
      "۱": 356,
      "ۼ": 357,
      "܂": 358,
      "܋": 359,
      "ܐ": 360,
      "ܑ": 361,
      "ܓ": 362,
      "ܕ": 363,
      "ܖ": 364,
      "ܗ": 365,
      "ܛ": 366,
      "ܣ": 367,
      "ܤ": 368,
      "ܥ": 369,
      "ܦ": 370,
      "ܧ": 371,
      "ܨ": 372,
      "ܪ": 373,
      "ܫ": 374,
      "ܮ": 375,
      "ܯ": 376,
      "ܳ": 377,
      "ܴ": 378,
      "ܶ": 379,
      "ܸ": 380,
      "ܼ": 381,
      "ܽ": 382,
      "ܾ": 383,
      "ܿ": 384,
      "݀": 385,
      "݁": 386,
      "݂": 387,
      "݄": 388,
      "݅": 389,
      "݇": 390,
      "݉": 391,
      "݊": 392,
      "݋": 393,
      "ݎ": 394,
      "ݏ": 395,
      "ݐ": 396,
      "ݑ": 397,
      "ݖ": 398,
      "߂": 399,
      "ߔ": 400,
      "ߙ": 401,
      "ߝ": 402,
      "ߟ": 403,
      "ߣ": 404,
      "ߨ": 405,
      "ߩ": 406,
      "ߪ": 407,
      "߭": 408,
      "߮": 409,
      "߱": 410,
      "߲": 411,
      "࡭": 412,
      "࡮": 413,
      "࡯": 414,
      "ࡰ": 415,
      "ࡸ": 416,
      "ࡹ": 417,
      "ࡺ": 418,
      "ࡼ": 419,
      "ࢀ": 420,
      "ࢉ": 421,
      "ࢎ": 422,
      "࢏": 423,
      "࢐": 424,
      "࢑": 425,
      "࢓": 426,
      "࢔": 427,
      "࢕": 428,
      "࢙": 429,
      "ࢠ": 430,
      "ࢿ": 431,
      "࣊": 432,
      "࣌": 433,
      "࣐": 434,
      "ષ": 435,
      "૙": 436,
      "૚": 437,
      "૛": 438,
      "૜": 439,
      "૞": 440,
      "૟": 441,
      "ૡ": 442,
      "ૢ": 443,
      "ଇ": 444,
      "଴": 445,
      "ଵ": 446,
      "ଶ": 447,
      "ହ": 448,
      "଼": 449,
      "ା": 450,
      "ି": 451,
      "ୀ": 452,
      "ୡ": 453,
      "୦": 454,
      "୧": 455,
      "୨": 456,
      "୩": 457,
      "୬": 458,
      "୭": 459,
      "ୱ": 460,
      "୶": 461,
      "஠": 462,
      "ஷ": 463,
      "஺": 464,
      "஼": 465,
      "஽": 466,
      "ா": 467,
      "௅": 468,
      "ெ": 469,
      "ே": 470,
      "௉": 471,
      "ோ": 472,
      "ௌ": 473,
      "்": 474,
      "௓": 475,
      "௔": 476,
      "௕": 477,
      "ௗ": 478,
      "௘": 479,
      "௚": 480,
      "௜": 481,
      "௝": 482,
      "௞": 483,
      "௟": 484,
      "௠": 485,
      "௡": 486,
      "௢": 487,
      "௥": 488,
      "௦": 489,
      "௧": 490,
      "௭": 491,
      "ఌ": 492,
      "ఎ": 493,
      "ఒ": 494,
      "గ": 495,
      "ఝ": 496,
      "ఠ": 497,
      "డ": 498,
      "బ": 499,
      "భ": 500,
      "మ": 501,
      "య": 502,
      "ష": 503,
      "౟": 504,
      "ౠ": 505,
      "ౣ": 506,
      "ಲ": 507,
      "ಳ": 508,
      "಴": 509,
      "ವ": 510,
      "ಿ": 511,
      "೅": 512,
      "೔": 513,
      "ೕ": 514,
      "ೖ": 515,
      "೘": 516,
      "೚": 517,
      "ೞ": 518,
      "ക": 519,
      "ത": 520,
      "൅": 521,
      "െ": 522,
      "ൈ": 523,
      "ൌ": 524,
      "൤": 525,
      "൥": 526,
      "൨": 527,
      "൩": 528,
      "൬": 529,
      "൭": 530,
      "൰": 531,
      "൱": 532,
      "ට": 533,
      "ඨ": 534,
      "ሺ": 535,
      "ሻ": 536,
      "ሾ": 537,
      "ሿ": 538,
      "ቀ": 539,
      "ቁ": 540,
      "ᵒ": 541,
      "ḉ": 542,
      "​": 543,
      "‎": 544,
      "‐": 545,
      "‑": 546,
      "‒": 547,
      "–": 548,
      "—": 549,
      "―": 550,
      "‖": 551,
      "‘": 552,
      "’": 553,
      "“": 554,
      "”": 555,
      "„": 556,
      "†": 557,
      "‡": 558,
      "•": 559,
      "…": 560,
      "‧": 561,
      "‰": 562,
      "′": 563,
      "″": 564,
      "‾": 565,
      "⁄": 566,
      "⁎": 567,
      "⁓": 568,
      "⁡": 569,
      "⁰": 570,
      "⁴": 571,
      "⁵": 572,
      "⁶": 573,
      "⁷": 574,
      "⁸": 575,
      "⁹": 576,
      "⁻": 577,
      "₀": 578,
      "₁": 579,
      "₂": 580,
      "₃": 581,
      "₄": 582,
      "₅": 583,
      "₆": 584,
      "₇": 585,
      "₈": 586,
      "ₓ": 587,
      "€": 588,
      "⃗": 589,
      "⃝": 590,
      "℃": 591,
      "ℎ": 592,
      "ℏ": 593,
      "№": 594,
      "™": 595,
      "Ω": 596,
      "Å": 597,
      "ℾ": 598,
      "Ⅰ": 599,
      "Ⅱ": 600,
      "Ⅳ": 601,
      "Ⅹ": 602,
      "ⅹ": 603,
      "↑": 604,
      "→": 605,
      "↓": 606,
      "↔": 607,
      "⇄": 608,
      "⇋": 609,
      "⇌": 610,
      "⇑": 611,
      "⇒": 612,
      "⇔": 613,
      "∁": 614,
      "∂": 615,
      "∅": 616,
      "∆": 617,
      "∇": 618,
      "∈": 619,
      "∎": 620,
      "∑": 621,
      "−": 622,
      "∕": 623,
      "∗": 624,
      "∘": 625,
      "∙": 626,
      "√": 627,
      "∝": 628,
      "∞": 629,
      "∣": 630,
      "∥": 631,
      "∫": 632,
      "∮": 633,
      "∼": 634,
      "∽": 635,
      "≃": 636,
      "≇": 637,
      "≈": 638,
      "≏": 639,
      "≠": 640,
      "≡": 641,
      "≤": 642,
      "≥": 643,
      "≪": 644,
      "≫": 645,
      "≲": 646,
      "≳": 647,
      "⊗": 648,
      "⊥": 649,
      "⋅": 650,
      "⋆": 651,
      "⋮": 652,
      "⋯": 653,
      "⋱": 654,
      "⌢": 655,
      "〈": 656,
      "〉": 657,
      "⎛": 658,
      "⎜": 659,
      "⎝": 660,
      "⎞": 661,
      "⎟": 662,
      "⎠": 663,
      "⎡": 664,
      "⎢": 665,
      "⎣": 666,
      "⎤": 667,
      "⎥": 668,
      "⎦": 669,
      "⎧": 670,
      "⎨": 671,
      "⎩": 672,
      "⎪": 673,
      "⎫": 674,
      "⎬": 675,
      "⎭": 676,
      "⎯": 677,
      "⏟": 678,
      "─": 679,
      "┴": 680,
      "║": 681,
      "■": 682,
      "□": 683,
      "▪": 684,
      "▲": 685,
      "△": 686,
      "►": 687,
      "▽": 688,
      "◊": 689,
      "○": 690,
      "●": 691,
      "◦": 692,
      "◽": 693,
      "☆": 694,
      "☐": 695,
      "☒": 696,
      "♮": 697,
      "♯": 698,
      "✉": 699,
      "✓": 700,
      "❶": 701,
      "❷": 702,
      "❸": 703,
      "❹": 704,
      "❺": 705,
      "❻": 706,
      "❼": 707,
      "⟨": 708,
      "⟩": 709,
      "⟶": 710,
      "⟹": 711,
      "⩽": 712,
      "⩾": 713,
      "、": 714,
      "〈": 715,
      "〉": 716,
      "䕰": 717,
      "䖃": 718,
      "一": 719,
      "三": 720,
      "上": 721,
      "下": 722,
      "不": 723,
      "且": 724,
      "中": 725,
      "丹": 726,
      "为": 727,
      "也": 728,
      "了": 729,
      "二": 730,
      "于": 731,
      "京": 732,
      "仍": 733,
      "从": 734,
      "以": 735,
      "件": 736,
      "优": 737,
      "会": 738,
      "位": 739,
      "作": 740,
      "佳": 741,
      "使": 742,
      "保": 743,
      "储": 744,
      "催": 745,
      "元": 746,
      "充": 747,
      "其": 748,
      "具": 749,
      "内": 750,
      "出": 751,
      "分": 752,
      "列": 753,
      "刘": 754,
      "到": 755,
      "制": 756,
      "剂": 757,
      "前": 758,
      "力": 759,
      "动": 760,
      "化": 761,
      "协": 762,
      "单": 763,
      "即": 764,
      "压": 765,
      "原": 766,
      "及": 767,
      "反": 768,
      "发": 769,
      "变": 770,
      "可": 771,
      "合": 772,
      "同": 773,
      "后": 774,
      "向": 775,
      "周": 776,
      "和": 777,
      "器": 778,
      "四": 779,
      "围": 780,
      "国": 781,
      "在": 782,
      "坚": 783,
      "域": 784,
      "基": 785,
      "墨": 786,
      "壁": 787,
      "备": 788,
      "外": 789,
      "多": 790,
      "大": 791,
      "姚": 792,
      "子": 793,
      "孔": 794,
      "学": 795,
      "定": 796,
      "实": 797,
      "容": 798,
      "密": 799,
      "对": 800,
      "导": 801,
      "小": 802,
      "层": 803,
      "展": 804,
      "属": 805,
      "工": 806,
      "已": 807,
      "布": 808,
      "平": 809,
      "并": 810,
      "广": 811,
      "应": 812,
      "度": 813,
      "建": 814,
      "开": 815,
      "异": 816,
      "张": 817,
      "弥": 818,
      "弯": 819,
      "径": 820,
      "徐": 821,
      "得": 822,
      "循": 823,
      "微": 824,
      "性": 825,
      "才": 826,
      "技": 827,
      "抗": 828,
      "报": 829,
      "拥": 830,
      "持": 831,
      "挥": 832,
      "振": 833,
      "控": 834,
      "掺": 835,
      "提": 836,
      "摘": 837,
      "撑": 838,
      "支": 839,
      "放": 840,
      "数": 841,
      "文": 842,
      "新": 843,
      "方": 844,
      "明": 845,
      "景": 846,
      "曲": 847,
      "有": 848,
      "本": 849,
      "朱": 850,
      "杂": 851,
      "杨": 852,
      "杰": 853,
      "東": 854,
      "极": 855,
      "构": 856,
      "柔": 857,
      "根": 858,
      "格": 859,
      "次": 860,
      "此": 861,
      "步": 862,
      "比": 863,
      "气": 864,
      "氧": 865,
      "氮": 866,
      "氰": 867,
      "沉": 868,
      "治": 869,
      "法": 870,
      "波": 871,
      "活": 872,
      "流": 873,
      "浮": 874,
      "涛": 875,
      "混": 876,
      "渡": 877,
      "温": 878,
      "源": 879,
      "滞": 880,
      "烷": 881,
      "然": 882,
      "片": 883,
      "物": 884,
      "特": 885,
      "独": 886,
      "环": 887,
      "现": 888,
      "理": 889,
      "生": 890,
      "用": 891,
      "甲": 892,
      "电": 893,
      "的": 894,
      "益": 895,
      "盟": 896,
      "直": 897,
      "相": 898,
      "石": 899,
      "研": 900,
      "硕": 901,
      "碳": 902,
      "离": 903,
      "种": 904,
      "科": 905,
      "积": 906,
      "称": 907,
      "稳": 908,
      "究": 909,
      "窄": 910,
      "立": 911,
      "管": 912,
      "米": 913,
      "级": 914,
      "纳": 915,
      "线": 916,
      "经": 917,
      "结": 918,
      "络": 919,
      "网": 920,
      "而": 921,
      "聚": 922,
      "胺": 923,
      "能": 924,
      "膜": 925,
      "自": 926,
      "色": 927,
      "茂": 928,
      "范": 929,
      "获": 930,
      "蔡": 931,
      "薄": 932,
      "行": 933,
      "补": 934,
      "表": 935,
      "要": 936,
      "计": 937,
      "论": 938,
      "设": 939,
      "该": 940,
      "质": 941,
      "赫": 942,
      "超": 943,
      "足": 944,
      "車": 945,
      "转": 946,
      "载": 947,
      "输": 948,
      "辟": 949,
      "达": 950,
      "过": 951,
      "还": 952,
      "这": 953,
      "进": 954,
      "迟": 955,
      "通": 956,
      "道": 957,
      "采": 958,
      "量": 959,
      "金": 960,
      "铁": 961,
      "镇": 962,
      "长": 963,
      "阔": 964,
      "限": 965,
      "非": 966,
      "面": 967,
      "韧": 968,
      "领": 969,
      "高": 970,
      "ꞌ": 971,
      "Ʇ": 972,
      "훼": 973,
      "훽": 974,
      "휀": 975,
      "휃": 976,
      "휄": 977,
      "휆": 978,
      "휇": 979,
      "휋": 980,
      "휌": 981,
      "휎": 982,
      "휐": 983,
      "휑": 984,
      "휔": 985,
      "휕": 986,
      "휖": 987,
      "휙": 988,
      "": 989,
      "": 990,
      "": 991,
      "": 992,
      "": 993,
      "": 994,
      "": 995,
      "": 996,
      "": 997,
      "": 998,
      "": 999,
      "": 1000,
      "": 1001,
      "": 1002,
      "": 1003,
      "": 1004,
      "": 1005,
      "": 1006,
      "": 1007,
      "": 1008,
      "": 1009,
      "": 1010,
      "": 1011,
      "": 1012,
      "": 1013,
      "": 1014,
      "": 1015,
      "": 1016,
      "": 1017,
      "": 1018,
      "": 1019,
      "": 1020,
      "": 1021,
      "": 1022,
      "": 1023,
      "": 1024,
      "": 1025,
      "": 1026,
      "": 1027,
      "": 1028,
      "": 1029,
      "": 1030,
      "": 1031,
      "": 1032,
      "": 1033,
      "": 1034,
      "": 1035,
      "": 1036,
      "": 1037,
      "": 1038,
      "": 1039,
      "": 1040,
      "": 1041,
      "": 1042,
      "": 1043,
      "": 1044,
      "": 1045,
      "": 1046,
      "": 1047,
      "": 1048,
      "": 1049,
      "": 1050,
      "": 1051,
      "": 1052,
      "": 1053,
      "": 1054,
      "": 1055,
      "": 1056,
      "": 1057,
      "": 1058,
      "": 1059,
      "": 1060,
      "": 1061,
      "": 1062,
      "": 1063,
      "": 1064,
      "": 1065,
      "": 1066,
      "": 1067,
      "": 1068,
      "": 1069,
      "": 1070,
      "": 1071,
      "": 1072,
      "": 1073,
      "": 1074,
      "": 1075,
      "": 1076,
      "": 1077,
      "": 1078,
      "": 1079,
      "": 1080,
      "": 1081,
      "": 1082,
      "": 1083,
      "": 1084,
      "": 1085,
      "": 1086,
      "": 1087,
      "": 1088,
      "": 1089,
      "": 1090,
      "": 1091,
      "": 1092,
      "": 1093,
      "": 1094,
      "": 1095,
      "": 1096,
      "": 1097,
      "": 1098,
      "": 1099,
      "": 1100,
      "": 1101,
      "": 1102,
      "": 1103,
      "": 1104,
      "": 1105,
      "": 1106,
      "": 1107,
      "": 1108,
      "": 1109,
      "": 1110,
      "": 1111,
      "": 1112,
      "": 1113,
      "": 1114,
      "": 1115,
      "": 1116,
      "": 1117,
      "": 1118,
      "": 1119,
      "": 1120,
      "": 1121,
      "ﬀ": 1122,
      "ﬁ": 1123,
      "ﬂ": 1124,
      "ﬃ": 1125,
      "ﬄ": 1126,
      "﬩": 1127,
      "️": 1128,
      "︠": 1129,
      "︡": 1130,
      "﹟": 1131,
      "﻿": 1132,
      "（": 1133,
      "）": 1134,
      "，": 1135,
      "－": 1136,
      "．": 1137,
      "：": 1138,
      "；": 1139,
      "＝": 1140,
      "ａ": 1141,
      "～": 1142,
      "𝐴": 1143,
      "𝐵": 1144,
      "𝐶": 1145,
      "𝐷": 1146,
      "𝐸": 1147,
      "𝐹": 1148,
      "𝐺": 1149,
      "𝐻": 1150,
      "𝐼": 1151,
      "𝐽": 1152,
      "𝐾": 1153,
      "𝐿": 1154,
      "𝑀": 1155,
      "𝑁": 1156,
      "𝑂": 1157,
      "𝑃": 1158,
      "𝑅": 1159,
      "𝑆": 1160,
      "𝑇": 1161,
      "𝑈": 1162,
      "𝑉": 1163,
      "𝑊": 1164,
      "𝑌": 1165,
      "𝑍": 1166,
      "𝑎": 1167,
      "𝑏": 1168,
      "𝑐": 1169,
      "𝑑": 1170,
      "𝑒": 1171,
      "𝑓": 1172,
      "𝑔": 1173,
      "𝑖": 1174,
      "𝑗": 1175,
      "𝑘": 1176,
      "𝑙": 1177,
      "𝑚": 1178,
      "𝑛": 1179,
      "𝑜": 1180,
      "𝑝": 1181,
      "𝑞": 1182,
      "𝑟": 1183,
      "𝑠": 1184,
      "𝑡": 1185,
      "𝑢": 1186,
      "𝑣": 1187,
      "𝑤": 1188,
      "𝑥": 1189,
      "𝑦": 1190,
      "𝑧": 1191,
      "𝑨": 1192,
      "𝑹": 1193,
      "𝒅": 1194,
      "𝒆": 1195,
      "𝒇": 1196,
      "𝒈": 1197,
      "𝒉": 1198,
      "𝒊": 1199,
      "𝒍": 1200,
      "𝒎": 1201,
      "𝒏": 1202,
      "𝒓": 1203,
      "𝒕": 1204,
      "𝒖": 1205,
      "𝛥": 1206,
      "𝛼": 1207,
      "𝛽": 1208,
      "𝛾": 1209,
      "𝛿": 1210,
      "𝜀": 1211,
      "𝜂": 1212,
      "𝜃": 1213,
      "𝜄": 1214,
      "𝜆": 1215,
      "𝜇": 1216,
      "𝜈": 1217,
      "𝜋": 1218,
      "𝜌": 1219,
      "𝜎": 1220,
      "𝜏": 1221,
      "𝜐": 1222,
      "𝜒": 1223,
      "𝜔": 1224,
      "𝜖": 1225,
      "𝜙": 1226,
      "𝜶": 1227,
      "𝜺": 1228,
      "𝝀": 1229,
      "𝝅": 1230,
      "𝟐": 1231,
      "𝟒": 1232,
      "󳨀": 1233,
      "th": 1234,
      "an": 1235,
      "er": 1236,
      "on": 1237,
      "in": 1238,
      "at": 1239,
      "re": 1240,
      "the": 1241,
      "al": 1242,
      "en": 1243,
      "ed": 1244,
      "of": 1245,
      "or": 1246,
      "ti": 1247,
      "es": 1248,
      "ro": 1249,
      "ar": 1250,
      "as": 1251,
      "and": 1252,
      "st": 1253,
      "ic": 1254,
      "le": 1255,
      "ing": 1256,
      "si": 1257,
      "ct": 1258,
      "is": 1259,
      "NT": 1260,
      "to": 1261,
      "CNT": 1262,
      "ch": 1263,
      "ati": 1264,
      "et": 1265,
      "ig": 1266,
      "ent": 1267,
      "ce": 1268,
      "de": 1269,
      "it": 1270,
      "he": 1271,
      "ly": 1272,
      "tion": 1273,
      "mp": 1274,
      "for": 1275,
      "ur": 1276,
      "ation": 1277,
      "20": 1278,
      "co": 1279,
      "ure": 1280,
      "di": 1281,
      "ano": 1282,
      "ub": 1283,
      "con": 1284,
      "ra": 1285,
      "us": 1286,
      "ow": 1287,
      "ul": 1288,
      "ol": 1289,
      "ve": 1290,
      "wi": 1291,
      "10": 1292,
      "un": 1293,
      "me": 1294,
      "res": 1295,
      "ge": 1296,
      "ac": 1297,
      "per": 1298,
      "am": 1299,
      "The": 1300,
      "with": 1301,
      "pro": 1302,
      "tic": 1303,
      "bon": 1304,
      "lect": 1305,
      "ter": 1306,
      "arbon": 1307,
      "ab": 1308,
      "te": 1309,
      "se": 1310,
      "nano": 1311,
      "il": 1312,
      "str": 1313,
      "be": 1314,
      "ap": 1315,
      ".;": 1316,
      "are": 1317,
      "du": 1318,
      "CNTs": 1319,
      "po": 1320,
      "ver": 1321,
      "igh": 1322,
      "tub": 1323,
      "im": 1324,
      "pe": 1325,
      "elect": 1326,
      "by": 1327,
      "ate": 1328,
      "mo": 1329,
      "ere": 1330,
      "ical": 1331,
      "carbon": 1332,
      "was": 1333,
      "ph": 1334,
      "ang": 1335,
      "Fig": 1336,
      "201": 1337,
      "all": 1338,
      "ci": 1339,
      "pl": 1340,
      "ad": 1341,
      "ater": 1342,
      "sh": 1343,
      "ity": 1344,
      "ated": 1345,
      "aly": 1346,
      "el": 1347,
      "comp": 1348,
      "um": 1349,
      "form": 1350,
      "ri": 1351,
      "rom": 1352,
      "ex": 1353,
      "sit": 1354,
      "00": 1355,
      "wh": 1356,
      "that": 1357,
      "les": 1358,
      "ment": 1359,
      "qu": 1360,
      "par": 1361,
      "age": 1362,
      "ran": 1363,
      "ction": 1364,
      "row": 1365,
      ").": 1366,
      "vi": 1367,
      "--": 1368,
      "==": 1369,
      "em": 1370,
      "nanotub": 1371,
      "In": 1372,
      "ff": 1373,
      "high": 1374,
      "from": 1375,
      "ut": 1376,
      "lo": 1377,
      "ataly": 1378,
      "ay": 1379,
      "ther": 1380,
      "ess": 1381,
      "su": 1382,
      "act": 1383,
      "ance": 1384,
      "und": 1385,
      "grow": 1386,
      "om": 1387,
      "cataly": 1388,
      "ir": 1389,
      "eter": 1390,
      "200": 1391,
      "were": 1392,
      "als": 1393,
      "hy": 1394,
      "ace": 1395,
      "ag": 1396,
      "id": 1397,
      "Th": 1398,
      "ll": 1399,
      "we": 1400,
      "show": 1401,
      "ain": 1402,
      "electro": 1403,
      "cti": 1404,
      "can": 1405,
      "ature": 1406,
      "fo": 1407,
      "low": 1408,
      "11": 1409,
      "ot": 1410,
      "por": 1411,
      "ber": 1412,
      "ha": 1413,
      "ich": 1414,
      "catalyst": 1415,
      "cont": 1416,
      "iz": 1417,
      "sion": 1418,
      "cre": 1419,
      "ine": 1420,
      "den": 1421,
      "ect": 1422,
      "Li": 1423,
      "ous": 1424,
      "ts": 1425,
      "Nano": 1426,
      "),": 1427,
      "electr": 1428,
      "sy": 1429,
      "ob": 1430,
      "ak": 1431,
      "VA": 1432,
      "uct": 1433,
      "od": 1434,
      "pre": 1435,
      "ally": 1436,
      "li": 1437,
      "ene": 1438,
      "able": 1439,
      "compo": 1440,
      "15": 1441,
      "sa": 1442,
      "ong": 1443,
      "gy": 1444,
      "creas": 1445,
      "sity": 1446,
      "ign": 1447,
      "urf": 1448,
      "12": 1449,
      ".,": 1450,
      "sub": 1451,
      "cur": 1452,
      "temp": 1453,
      "which": 1454,
      "growth": 1455,
      "ne": 1456,
      "erature": 1457,
      "gra": 1458,
      "struct": 1459,
      "ameter": 1460,
      "SW": 1461,
      "do": 1462,
      "ence": 1463,
      "ted": 1464,
      "sis": 1465,
      "ib": 1466,
      "cess": 1467,
      "ateri": 1468,
      "fer": 1469,
      "our": 1470,
      "Figure": 1471,
      "19": 1472,
      "13": 1473,
      "nanotubes": 1474,
      "partic": 1475,
      "spe": 1476,
      "sor": 1477,
      "surf": 1478,
      "eng": 1479,
      "temperature": 1480,
      "pres": 1481,
      "16": 1482,
      "ties": 1483,
      "Ch": 1484,
      "ved": 1485,
      "ten": 1486,
      "25": 1487,
      "chan": 1488,
      "Fe": 1489,
      "tran": 1490,
      "EM": 1491,
      "inter": 1492,
      "gen": 1493,
      "Che": 1494,
      "des": 1495,
      "ros": 1496,
      "met": 1497,
      "structure": 1498,
      "sition": 1499,
      "Chem": 1500,
      "dis": 1501,
      "chem": 1502,
      "====": 1503,
      "ating": 1504,
      "].": 1505,
      "---": 1506,
      "ray": 1507,
      "ced": 1508,
      "ctive": 1509,
      "ution": 1510,
      "14": 1511,
      "Page": 1512,
      "ni": 1513,
      "cap": 1514,
      "cal": 1515,
      "der": 1516,
      "mic": 1517,
      "Co": 1518,
      "surface": 1519,
      "up": 1520,
      "cm": 1521,
      "samp": 1522,
      "nthe": 1523,
      "ayer": 1524,
      "char": 1525,
      "Zh": 1526,
      "ations": 1527,
      "ren": 1528,
      "fore": 1529,
      "ding": 1530,
      "lu": 1531,
      "using": 1532,
      "Re": 1533,
      "ach": 1534,
      "increas": 1535,
      "nm": 1536,
      "Carbon": 1537,
      "align": 1538,
      "nanotube": 1539,
      "50": 1540,
      "this": 1541,
      "ug": 1542,
      "sol": 1543,
      "diameter": 1544,
      "cy": 1545,
      "trans": 1546,
      "layer": 1547,
      "imp": 1548,
      "min": 1549,
      "mal": 1550,
      "22": 1551,
      "process": 1552,
      "ates": 1553,
      "NP": 1554,
      "vity": 1555,
      "resul": 1556,
      "condu": 1557,
      "ting": 1558,
      "18": 1559,
      "diff": 1560,
      "ms": 1561,
      "bet": 1562,
      "synthe": 1563,
      "Phy": 1564,
      "out": 1565,
      "30": 1566,
      "wall": 1567,
      "meth": 1568,
      "17": 1569,
      "materi": 1570,
      "Phys": 1571,
      "ser": 1572,
      "graph": 1573,
      "ant": 1574,
      "mb": 1575,
      "vol": 1576,
      "ric": 1577,
      "CV": 1578,
      "23": 1579,
      "sist": 1580,
      "siz": 1581,
      "used": 1582,
      "ox": 1583,
      "substr": 1584,
      "particles": 1585,
      "olo": 1586,
      "ight": 1587,
      "val": 1588,
      "depo": 1589,
      "array": 1590,
      "ugh": 1591,
      "dro": 1592,
      "have": 1593,
      "wor": 1594,
      "chemical": 1595,
      "mer": 1596,
      "sp": 1597,
      "op": 1598,
      "sing": 1599,
      "density": 1600,
      "ca": 1601,
      "ween": 1602,
      "Sci": 1603,
      "dition": 1604,
      "ma": 1605,
      "atom": 1606,
      "cor": 1607,
      "proper": 1608,
      "between": 1609,
      "capac": 1610,
      "cent": 1611,
      "ased": 1612,
      "ind": 1613,
      "ves": 1614,
      "tain": 1615,
      "perform": 1616,
      "fil": 1617,
      "eff": 1618,
      "sen": 1619,
      "electron": 1620,
      "This": 1621,
      "ility": 1622,
      "aligned": 1623,
      "ty": 1624,
      "lar": 1625,
      "ass": 1626,
      "asure": 1627,
      "21": 1628,
      "than": 1629,
      "Al": 1630,
      "CVD": 1631,
      "Mo": 1632,
      "ergy": 1633,
      "ion": 1634,
      "En": 1635,
      "O2": 1636,
      "cul": 1637,
      "rate": 1638,
      "wo": 1639,
      "produ": 1640,
      "not": 1641,
      "):": 1642,
      "measure": 1643,
      "work": 1644,
      "org": 1645,
      "ry": 1646,
      "24": 1647,
      "27": 1648,
      "method": 1649,
      "ﬁl": 1650,
      "appl": 1651,
      "eld": 1652,
      "ces": 1653,
      "spect": 1654,
      "shown": 1655,
      "fter": 1656,
      "properties": 1657,
      "ors": 1658,
      "also": 1659,
      "metal": 1660,
      "Mater": 1661,
      "formation": 1662,
      "tical": 1663,
      "erent": 1664,
      "26": 1665,
      "ree": 1666,
      "mechan": 1667,
      "sites": 1668,
      "ary": 1669,
      "MW": 1670,
      "mul": 1671,
      "Si": 1672,
      "ase": 1673,
      "100": 1674,
      "one": 1675,
      "28": 1676,
      "ick": 1677,
      "atter": 1678,
      "action": 1679,
      "fi": 1680,
      "tube": 1681,
      "thermal": 1682,
      "fur": 1683,
      "no": 1684,
      "ari": 1685,
      "sed": 1686,
      "ength": 1687,
      "py": 1688,
      "ology": 1689,
      "mon": 1690,
      "under": 1691,
      "40": 1692,
      "uld": 1693,
      "site": 1694,
      "based": 1695,
      "length": 1696,
      "pon": 1697,
      "33": 1698,
      "chn": 1699,
      "man": 1700,
      "ew": 1701,
      "ck": 1702,
      "gas": 1703,
      "ared": 1704,
      "Ap": 1705,
      "av": 1706,
      "has": 1707,
      "obser": 1708,
      "pen": 1709,
      "over": 1710,
      "red": 1711,
      "Zhang": 1712,
      "ou": 1713,
      "nal": 1714,
      "tial": 1715,
      "electrode": 1716,
      "est": 1717,
      "poly": 1718,
      "acter": 1719,
      "ration": 1720,
      "Wang": 1721,
      "cell": 1722,
      "**": 1723,
      "been": 1724,
      "valu": 1725,
      "stu": 1726,
      "forest": 1727,
      "ps": 1728,
      "rosco": 1729,
      "substrate": 1730,
      "_A": 1731,
      "dire": 1732,
      "hydro": 1733,
      "respon": 1734,
      "ization": 1735,
      "their": 1736,
      "mol": 1737,
      "ke": 1738,
      "ide": 1739,
      "ative": 1740,
      "com": 1741,
      "Sh": 1742,
      "H2": 1743,
      "29": 1744,
      "lic": 1745,
      "atio": 1746,
      "into": 1747,
      "atoms": 1748,
      "use": 1749,
      "ments": 1750,
      "We": 1751,
      "Let": 1752,
      "tive": 1753,
      "rel": 1754,
      "ratio": 1755,
      "deposition": 1756,
      "tt": 1757,
      "Ni": 1758,
      "unction": 1759,
      "iment": 1760,
      "bo": 1761,
      "ized": 1762,
      "ard": 1763,
      "samples": 1764,
      "uring": 1765,
      "ness": 1766,
      "tim": 1767,
      "tically": 1768,
      "ability": 1769,
      "rent": 1770,
      "ctivity": 1771,
      "materials": 1772,
      "ron": 1773,
      "line": 1774,
      "Appl": 1775,
      "Elect": 1776,
      "35": 1777,
      "capacit": 1778,
      "SEM": 1779,
      "ages": 1780,
      "vic": 1781,
      "45": 1782,
      "Ad": 1783,
      "tre": 1784,
      "more": 1785,
      "respe": 1786,
      "As": 1787,
      "synthesis": 1788,
      "periment": 1789,
      "cle": 1790,
      "Con": 1791,
      "its": 1792,
      "after": 1793,
      "energy": 1794,
      "rough": 1795,
      "vap": 1796,
      "tra": 1797,
      "fic": 1798,
      "composite": 1799,
      "ctively": 1800,
      "ven": 1801,
      "obtain": 1802,
      "time": 1803,
      "VACNT": 1804,
      "_NP": 1805,
      "bers": 1806,
      "arch": 1807,
      "========": 1808,
      "tho": 1809,
      "doi": 1810,
      "so": 1811,
      "abric": 1812,
      "dy": 1813,
      "sample": 1814,
      "she": 1815,
      "shows": 1816,
      "ile": 1817,
      "present": 1818,
      ".-": 1819,
      "actor": 1820,
      "//": 1821,
      "39": 1822,
      "60": 1823,
      "performance": 1824,
      "rib": 1825,
      "orph": 1826,
      "Ar": 1827,
      "higher": 1828,
      "composites": 1829,
      "due": 1830,
      "water": 1831,
      "ell": 1832,
      "walled": 1833,
      "scal": 1834,
      "sup": 1835,
      "analy": 1836,
      "sig": 1837,
      "tal": 1838,
      "arrays": 1839,
      "ported": 1840,
      "different": 1841,
      "single": 1842,
      "ever": 1843,
      "ded": 1844,
      "htt": 1845,
      "peak": 1846,
      "current": 1847,
      "Ram": 1848,
      "://": 1849,
      "Te": 1850,
      "38": 1851,
      "Lett": 1852,
      "results": 1853,
      "resist": 1854,
      "applic": 1855,
      "TEM": 1856,
      "SWCNTs": 1857,
      "ie": 1858,
      "reg": 1859,
      "area": 1860,
      "thick": 1861,
      "character": 1862,
      "SWNT": 1863,
      "mall": 1864,
      "vari": 1865,
      "yl": 1866,
      "De": 1867,
      "port": 1868,
      "stra": 1869,
      "observed": 1870,
      "St": 1871,
      "mm": 1872,
      "car": 1873,
      "two": 1874,
      "ross": 1875,
      "Res": 1876,
      "grown": 1877,
      "66": 1878,
      "charge": 1879,
      "Raman": 1880,
      "ao": 1881,
      "respectively": 1882,
      "micro": 1883,
      "au": 1884,
      "art": 1885,
      "44": 1886,
      "Liu": 1887,
      "ics": 1888,
      "Le": 1889,
      "vapor": 1890,
      "ish": 1891,
      "devic": 1892,
      "ient": 1893,
      "int": 1894,
      "37": 1895,
      "ite": 1896,
      "ai": 1897,
      "sure": 1898,
      "num": 1899,
      "other": 1900,
      "stem": 1901,
      "conductivity": 1902,
      "AC": 1903,
      "concent": 1904,
      "clu": 1905,
      "electrical": 1906,
      "fabric": 1907,
      "sti": 1908,
      "indic": 1909,
      "##": 1910,
      "led": 1911,
      "graphene": 1912,
      "such": 1913,
      "sc": 1914,
      "ption": 1915,
      "function": 1916,
      "ds": 1917,
      "ww": 1918,
      "..": 1919,
      "load": 1920,
      "multi": 1921,
      "size": 1922,
      "redu": 1923,
      "ack": 1924,
      "ail": 1925,
      "ped": 1926,
      "solution": 1927,
      "bund": 1928,
      "total": 1929,
      "super": 1930,
      "experiment": 1931,
      "36": 1932,
      "For": 1933,
      "ission": 1934,
      "Pro": 1935,
      "tubes": 1936,
      "mode": 1937,
      "ste": 1938,
      "through": 1939,
      "2016": 1940,
      "effect": 1941,
      "memb": 1942,
      "images": 1943,
      "membran": 1944,
      "speci": 1945,
      "VACNTs": 1946,
      "ies": 1947,
      "obtained": 1948,
      "where": 1949,
      "electrodes": 1950,
      "Adv": 1951,
      "Me": 1952,
      "owever": 1953,
      "typ": 1954,
      "resistance": 1955,
      "TI": 1956,
      "small": 1957,
      "these": 1958,
      "scale": 1959,
      "contro": 1960,
      "reaction": 1961,
      "34": 1962,
      "sul": 1963,
      "during": 1964,
      "wa": 1965,
      "mechanical": 1966,
      "Pa": 1967,
      "requ": 1968,
      "system": 1969,
      "ble": 1970,
      "que": 1971,
      "ST": 1972,
      "It": 1973,
      "main": 1974,
      "mi": 1975,
      "range": 1976,
      "polymer": 1977,
      "strib": 1978,
      "An": 1979,
      "ane": 1980,
      "ning": 1981,
      "enh": 1982,
      "ticle": 1983,
      "fe": 1984,
      "structures": 1985,
      "roscopy": 1986,
      "uni": 1987,
      "Science": 1988,
      "ournal": 1989,
      "fra": 1990,
      "55": 1991,
      "condition": 1992,
      "velo": 1993,
      "SC": 1994,
      "ers": 1995,
      "distrib": 1996,
      "increase": 1997,
      "SWCNT": 1998,
      "large": 1999,
      "1e": 2000,
      "ful": 2001,
      "transfer": 2002,
      "sensor": 2003,
      "ata": 2004,
      "sheet": 2005,
      "Materi": 2006,
      "col": 2007,
      "Comp": 2008,
      "well": 2009,
      "set": 2010,
      "os": 2011,
      "material": 2012,
      "nanoparticles": 2013,
      "sized": 2014,
      "ied": 2015,
      "80": 2016,
      "],": 2017,
      "strain": 2018,
      "99": 2019,
      "oc": 2020,
      "reactor": 2021,
      "ency": 2022,
      "vertically": 2023,
      "oto": 2024,
      "decreas": 2025,
      "cyc": 2026,
      "ﬂow": 2027,
      "https": 2028,
      "pa": 2029,
      "rid": 2030,
      "sorption": 2031,
      "47": 2032,
      "impro": 2033,
      "ED": 2034,
      "number": 2035,
      "32": 2036,
      "fac": 2037,
      "ling": 2038,
      "las": 2039,
      "reng": 2040,
      "det": 2041,
      "order": 2042,
      "ryst": 2043,
      "mole": 2044,
      "both": 2045,
      "contact": 2046,
      "2017": 2047,
      "90": 2048,
      "lin": 2049,
      "film": 2050,
      "poten": 2051,
      "ial": 2052,
      "48": 2053,
      "Ti": 2054,
      "mat": 2055,
      "nit": 2056,
      "particle": 2057,
      "Kim": 2058,
      "chnology": 2059,
      "Cu": 2060,
      "long": 2061,
      "tig": 2062,
      "cond": 2063,
      "AN": 2064,
      "flow": 2065,
      "However": 2066,
      "reported": 2067,
      "thickness": 2068,
      "could": 2069,
      "oun": 2070,
      "67": 2071,
      "Materials": 2072,
      "rength": 2073,
      "gener": 2074,
      "Se": 2075,
      "Chen": 2076,
      "Uni": 2077,
      "ple": 2078,
      "volt": 2079,
      "io": 2080,
      "Eng": 2081,
      "49": 2082,
      "morph": 2083,
      "anced": 2084,
      "pow": 2085,
      "2015": 2086,
      "To": 2087,
      "concentration": 2088,
      "typical": 2089,
      "2014": 2090,
      "earch": 2091,
      "Di": 2092,
      "ark": 2093,
      "iron": 2094,
      "study": 2095,
      "depen": 2096,
      "ﬁc": 2097,
      "applications": 2098,
      "ero": 2099,
      "analysis": 2100,
      "ort": 2101,
      "amp": 2102,
      "distribution": 2103,
      "own": 2104,
      "strength": 2105,
      "CF": 2106,
      "net": 2107,
      "ﬁlm": 2108,
      "prep": 2109,
      "second": 2110,
      "lower": 2111,
      "signi": 2112,
      "cene": 2113,
      "but": 2114,
      "2O": 2115,
      "image": 2116,
      "ust": 2117,
      "acti": 2118,
      "addition": 2119,
      "synthesized": 2120,
      "fol": 2121,
      "appro": 2122,
      "MWCNTs": 2123,
      "pressure": 2124,
      "31": 2125,
      "found": 2126,
      "Lee": 2127,
      "while": 2128,
      "ore": 2129,
      "like": 2130,
      "Electro": 2131,
      "70": 2132,
      "Univer": 2133,
      "measured": 2134,
      "2018": 2135,
      "band": 2136,
      "ast": 2137,
      "only": 2138,
      "lim": 2139,
      "vestig": 2140,
      "ax": 2141,
      "istic": 2142,
      "very": 2143,
      "2013": 2144,
      "most": 2145,
      "ular": 2146,
      "mil": 2147,
      "mag": 2148,
      "CO": 2149,
      "men": 2150,
      "2010": 2151,
      "ress": 2152,
      "ture": 2153,
      "when": 2154,
      "less": 2155,
      "view": 2156,
      "cryst": 2157,
      "46": 2158,
      "atic": 2159,
      "direct": 2160,
      "2011": 2161,
      "cause": 2162,
      "xim": 2163,
      "patter": 2164,
      "conditions": 2165,
      "mass": 2166,
      "light": 2167,
      "stry": 2168,
      "Hu": 2169,
      "vious": 2170,
      "ip": 2171,
      "thin": 2172,
      "direction": 2173,
      "stand": 2174,
      "LE": 2175,
      "treat": 2176,
      "ible": 2177,
      "S2": 2178,
      "spectra": 2179,
      "side": 2180,
      "cross": 2181,
      "equ": 2182,
      "pur": 2183,
      "lex": 2184,
      "prepared": 2185,
      "electric": 2186,
      "75": 2187,
      "catalysts": 2188,
      "A_": 2189,
      "ina": 2190,
      "eth": 2191,
      "hydrogen": 2192,
      "provi": 2193,
      "calcul": 2194,
      "correspon": 2195,
      "sour": 2196,
      "uch": 2197,
      "potential": 2198,
      "University": 2199,
      "rocene": 2200,
      "199": 2201,
      "sible": 2202,
      "Table": 2203,
      "ering": 2204,
      "carri": 2205,
      "deposit": 2206,
      "ini": 2207,
      "catalytic": 2208,
      "hib": 2209,
      "ﬁlms": 2210,
      "pr": 2211,
      "further": 2212,
      "_total": 2213,
      "increased": 2214,
      "substrates": 2215,
      "SWNTs": 2216,
      "2012": 2217,
      "85": 2218,
      "investig": 2219,
      "silic": 2220,
      "son": 2221,
      "tes": 2222,
      "studi": 2223,
      "ural": 2224,
      "diﬀ": 2225,
      "ese": 2226,
      "brid": 2227,
      "demon": 2228,
      "He": 2229,
      "_C": 2230,
      "vel": 2231,
      "Au": 2232,
      "electrochemical": 2233,
      "Pt": 2234,
      "Inter": 2235,
      "develo": 2236,
      "ents": 2237,
      "05": 2238,
      "lish": 2239,
      "Q_": 2240,
      "No": 2241,
      "2019": 2242,
      "cursor": 2243,
      "On": 2244,
      "go": 2245,
      "then": 2246,
      "may": 2247,
      "there": 2248,
      "ection": 2249,
      "ele": 2250,
      "PE": 2251,
      "ﬁbers": 2252,
      "ield": 2253,
      "High": 2254,
      "pos": 2255,
      "sel": 2256,
      "composition": 2257,
      "inu": 2258,
      "pattern": 2259,
      "tensi": 2260,
      "demonstr": 2261,
      "cted": 2262,
      "oxide": 2263,
      "amin": 2264,
      "bu": 2265,
      "molecul": 2266,
      "model": 2267,
      "membrane": 2268,
      "parameter": 2269,
      "dual": 2270,
      "Po": 2271,
      "each": 2272,
      "arn": 2273,
      "000": 2274,
      "att": 2275,
      "mix": 2276,
      "43": 2277,
      "layers": 2278,
      "same": 2279,
      "istry": 2280,
      "ute": 2281,
      "ume": 2282,
      "verage": 2283,
      "pic": 2284,
      "Journal": 2285,
      "heat": 2286,
      "ger": 2287,
      "ality": 2288,
      "devices": 2289,
      "tech": 2290,
      "ects": 2291,
      "There": 2292,
      "ho": 2293,
      ":**": 2294,
      "films": 2295,
      "mechanis": 2296,
      "gre": 2297,
      "_metal": 2298,
      "ping": 2299,
      "uted": 2300,
      "ected": 2301,
      "ia": 2302,
      "radi": 2303,
      "ﬂu": 2304,
      "65": 2305,
      "compared": 2306,
      "ner": 2307,
      "2009": 2308,
      "sccm": 2309,
      "bundles": 2310,
      "ferrocene": 2311,
      "part": 2312,
      "ineering": 2313,
      "tch": 2314,
      "treatment": 2315,
      "scan": 2316,
      "MS": 2317,
      "deter": 2318,
      "rodu": 2319,
      "PT": 2320,
      "values": 2321,
      "phase": 2322,
      "def": 2323,
      "follow": 2324,
      "med": 2325,
      "42": 2326,
      "photo": 2327,
      "STP": 2328,
      "Ro": 2329,
      "functional": 2330,
      "exhib": 2331,
      "along": 2332,
      "lled": 2333,
      "ving": 2334,
      "non": 2335,
      "87": 2336,
      "hi": 2337,
      "Ac": 2338,
      "stre": 2339,
      "value": 2340,
      "95": 2341,
      "enti": 2342,
      "N_metal": 2343,
      "air": 2344,
      "anol": 2345,
      "gel": 2346,
      "emission": 2347,
      "Sch": 2348,
      "2008": 2349,
      "power": 2350,
      "Sy": 2351,
      "PD": 2352,
      "pt": 2353,
      "41": 2354,
      "ited": 2355,
      "network": 2356,
      "havi": 2357,
      "precursor": 2358,
      "Sup": 2359,
      "ium": 2360,
      "result": 2361,
      "ator": 2362,
      "alignment": 2363,
      "oxid": 2364,
      "quid": 2365,
      "morphology": 2366,
      "MWCNT": 2367,
      "active": 2368,
      "Wh": 2369,
      "formed": 2370,
      "ler": 2371,
      "TIC": 2372,
      "Yang": 2373,
      "Zn": 2374,
      "xy": 2375,
      "tr": 2376,
      "lead": 2377,
      "oxy": 2378,
      "three": 2379,
      "section": 2380,
      "via": 2381,
      "Nanotube": 2382,
      "RTIC": 2383,
      "achie": 2384,
      "RTICLE": 2385,
      "without": 2386,
      "dent": 2387,
      "Su": 2388,
      "free": 2389,
      "forests": 2390,
      "²/": 2391,
      "yarn": 2392,
      "highly": 2393,
      "SA": 2394,
      "orient": 2395,
      "ﬁeld": 2396,
      "simil": 2397,
      "about": 2398,
      "source": 2399,
      "cus": 2400,
      "measurements": 2401,
      "FC": 2402,
      "continu": 2403,
      "These": 2404,
      "Ex": 2405,
      "allic": 2406,
      "deposited": 2407,
      "top": 2408,
      "artz": 2409,
      "behavi": 2410,
      "similar": 2411,
      "coated": 2412,
      "because": 2413,
      "pri": 2414,
      "2007": 2415,
      "divi": 2416,
      "ublish": 2417,
      "face": 2418,
      "amoun": 2419,
      "techni": 2420,
      "iang": 2421,
      "coating": 2422,
      "frequ": 2423,
      "ges": 2424,
      "neal": 2425,
      "www": 2426,
      "ACS": 2427,
      "sider": 2428,
      "data": 2429,
      "inclu": 2430,
      "uniform": 2431,
      "if": 2432,
      "applied": 2433,
      "change": 2434,
      "fﬁ": 2435,
      "semb": 2436,
      "2006": 2437,
      "kg": 2438,
      "region": 2439,
      "quartz": 2440,
      "la": 2441,
      "curves": 2442,
      "ﬁr": 2443,
      "various": 2444,
      "rogen": 2445,
      "aero": 2446,
      "supercapacit": 2447,
      "round": 2448,
      "force": 2449,
      "voltage": 2450,
      "anneal": 2451,
      "usion": 2452,
      "hol": 2453,
      "simul": 2454,
      "³/": 2455,
      "arly": 2456,
      "ived": 2457,
      "cial": 2458,
      "laser": 2459,
      "peaks": 2460,
      "....": 2461,
      "Nanotubes": 2462,
      "ov": 2463,
      "mod": 2464,
      "Yu": 2465,
      "volume": 2466,
      "electroly": 2467,
      "56": 2468,
      "2020": 2469,
      "relative": 2470,
      "yield": 2471,
      "increasing": 2472,
      "So": 2473,
      "ylene": 2474,
      "CE": 2475,
      "avg": 2476,
      "Chemistry": 2477,
      "57": 2478,
      "porous": 2479,
      "Energy": 2480,
      "stor": 2481,
      "ube": 2482,
      "hao": 2483,
      "CH": 2484,
      "indu": 2485,
      "aris": 2486,
      "nel": 2487,
      "previous": 2488,
      "_avg": 2489,
      "performed": 2490,
      "cri": 2491,
      "flu": 2492,
      "1016": 2493,
      "Engineering": 2494,
      "Xu": 2495,
      "ational": 2496,
      "capacitance": 2497,
      "CN": 2498,
      "zed": 2499,
      "97": 2500,
      "device": 2501,
      "will": 2502,
      "transport": 2503,
      "proc": 2504,
      "field": 2505,
      "DO": 2506,
      "strong": 2507,
      "chang": 2508,
      "consist": 2509,
      "silicon": 2510,
      "vation": 2511,
      "SI": 2512,
      "wt": 2513,
      "average": 2514,
      "paration": 2515,
      "μm": 2516,
      "FE": 2517,
      "olog": 2518,
      "produced": 2519,
      "interaction": 2520,
      "fact": 2521,
      "inal": 2522,
      "liquid": 2523,
      "58": 2524,
      "adv": 2525,
      "Nanote": 2526,
      "2O3": 2527,
      "Chemical": 2528,
      "nace": 2529,
      "sequ": 2530,
      "Article": 2531,
      "loading": 2532,
      "oxygen": 2533,
      "densi": 2534,
      "A_sub": 2535,
      "Mn": 2536,
      "Tran": 2537,
      "olar": 2538,
      "characteristic": 2539,
      "bi": 2540,
      "state": 2541,
      "remo": 2542,
      "showed": 2543,
      "OH": 2544,
      "Tube": 2545,
      "Ver": 2546,
      "increases": 2547,
      "mechanism": 2548,
      "poxy": 2549,
      "Rev": 2550,
      "auth": 2551,
      "parameters": 2552,
      "Com": 2553,
      "CNT_A": 2554,
      "CNT_ARTICLE": 2555,
      "stretch": 2556,
      "vered": 2557,
      "Mic": 2558,
      "cient": 2559,
      "300": 2560,
      "consider": 2561,
      "article": 2562,
      "conf": 2563,
      "ences": 2564,
      "contain": 2565,
      "ﬁber": 2566,
      "dist": 2567,
      "br": 2568,
      "product": 2569,
      "2005": 2570,
      "sheets": 2571,
      "aces": 2572,
      "before": 2573,
      "sive": 2574,
      "cu": 2575,
      "modul": 2576,
      "PS": 2577,
      "Lu": 2578,
      "µm": 2579,
      "spectroscopy": 2580,
      "disper": 2581,
      "step": 2582,
      "stability": 2583,
      "tensile": 2584,
      "cells": 2585,
      "within": 2586,
      "dividual": 2587,
      "calculated": 2588,
      "furnace": 2589,
      "experimental": 2590,
      "gi": 2591,
      "dic": 2592,
      "5e": 2593,
      "mA": 2594,
      "mission": 2595,
      "angle": 2596,
      "nu": 2597,
      "presence": 2598,
      "discharge": 2599,
      "stit": 2600,
      "Nat": 2601,
      "dimen": 2602,
      "porting": 2603,
      "nitrogen": 2604,
      "amount": 2605,
      "sph": 2606,
      "chnol": 2607,
      "Cl": 2608,
      "assemb": 2609,
      "fully": 2610,
      "ublished": 2611,
      "til": 2612,
      "dence": 2613,
      "effic": 2614,
      "ances": 2615,
      "cm2": 2616,
      "sk": 2617,
      "any": 2618,
      "content": 2619,
      "Therefore": 2620,
      "ward": 2621,
      "sug": 2622,
      "dimension": 2623,
      "ically": 2624,
      "ZnO": 2625,
      "crystall": 2626,
      "roup": 2627,
      "anti": 2628,
      "nam": 2629,
      "Ph": 2630,
      "arg": 2631,
      "way": 2632,
      "phene": 2633,
      "height": 2634,
      "Hz": 2635,
      "cycles": 2636,
      "63": 2637,
      "design": 2638,
      "acid": 2639,
      "improve": 2640,
      "temperatures": 2641,
      "continuous": 2642,
      "case": 2643,
      "methods": 2644,
      "Research": 2645,
      "pp": 2646,
      "After": 2647,
      "Gu": 2648,
      "ON": 2649,
      "ist": 2650,
      "metallic": 2651,
      "larger": 2652,
      "viron": 2653,
      "98": 2654,
      "AL": 2655,
      "expl": 2656,
      "production": 2657,
      "epoxy": 2658,
      "individual": 2659,
      "optical": 2660,
      "ective": 2661,
      "2004": 2662,
      "corresponding": 2663,
      "================": 2664,
      "ove": 2665,
      ".[": 2666,
      "eV": 2667,
      "nan": 2668,
      "fabricated": 2669,
      "Cataly": 2670,
      "type": 2671,
      "Fur": 2672,
      "Be": 2673,
      "stant": 2674,
      "control": 2675,
      "compres": 2676,
      "Zhao": 2677,
      "68": 2678,
      "behavior": 2679,
      "now": 2680,
      "cting": 2681,
      "SiO2": 2682,
      "determin": 2683,
      "IG": 2684,
      "cing": 2685,
      "fabrication": 2686,
      "ters": 2687,
      "play": 2688,
      "import": 2689,
      "aren": 2690,
      "some": 2691,
      "II": 2692,
      "frequency": 2693,
      "electrolyte": 2694,
      "52": 2695,
      "position": 2696,
      "3D": 2697,
      "coun": 2698,
      "conductive": 2699,
      "sulfur": 2700,
      "mean": 2701,
      "maxim": 2702,
      "much": 2703,
      "paper": 2704,
      "cant": 2705,
      "comb": 2706,
      "hybrid": 2707,
      "###": 2708,
      "good": 2709,
      "RE": 2710,
      "RI": 2711,
      "ise": 2712,
      "posed": 2713,
      "plot": 2714,
      "modi": 2715,
      "Ma": 2716,
      "they": 2717,
      "cer": 2718,
      "clo": 2719,
      "introdu": 2720,
      "see": 2721,
      "78": 2722,
      "Sing": 2723,
      "vis": 2724,
      "batter": 2725,
      "hes": 2726,
      "represent": 2727,
      "heating": 2728,
      "above": 2729,
      "73": 2730,
      "netic": 2731,
      "times": 2732,
      "capacity": 2733,
      "c_total": 2734,
      "enhance": 2735,
      "estim": 2736,
      "absorption": 2737,
      "wave": 2738,
      "rates": 2739,
      "DOI": 2740,
      "ety": 2741,
      "54": 2742,
      "spin": 2743,
      "Gra": 2744,
      "Ste": 2745,
      "beam": 2746,
      "plas": 2747,
      "Technology": 2748,
      "interface": 2749,
      "atomic": 2750,
      "Zhu": 2751,
      "69": 2752,
      "would": 2753,
      "organ": 2754,
      "resulting": 2755,
      "%,": 2756,
      "Am": 2757,
      "Du": 2758,
      "More": 2759,
      "though": 2760,
      "oxidation": 2761,
      "irst": 2762,
      "ys": 2763,
      "ned": 2764,
      "ﬁg": 2765,
      "stress": 2766,
      "NTs": 2767,
      "500": 2768,
      "diameters": 2769,
      "deli": 2770,
      "Poly": 2771,
      "Jiang": 2772,
      "Park": 2773,
      "inten": 2774,
      "sensors": 2775,
      "group": 2776,
      "tivity": 2777,
      "01": 2778,
      "ities": 2779,
      "ately": 2780,
      "membranes": 2781,
      "Zhou": 2782,
      "nucle": 2783,
      "eﬀ": 2784,
      "ID": 2785,
      "Wu": 2786,
      "microscopy": 2787,
      "requi": 2788,
      "ben": 2789,
      "shap": 2790,
      "studies": 2791,
      "Sun": 2792,
      "enhanced": 2793,
      "rix": 2794,
      "Further": 2795,
      "reve": 2796,
      "lit": 2797,
      "ince": 2798,
      "alum": 2799,
      "ﬁed": 2800,
      "lexible": 2801,
      "reduction": 2802,
      "64": 2803,
      "Ther": 2804,
      "dra": 2805,
      "ributed": 2806,
      "ailable": 2807,
      "constant": 2808,
      "sci": 2809,
      "Int": 2810,
      "Pre": 2811,
      "omet": 2812,
      "response": 2813,
      "Synthe": 2814,
      "ﬁcant": 2815,
      "CO2": 2816,
      "ian": 2817,
      "surfaces": 2818,
      "Ag": 2819,
      "ethanol": 2820,
      "C2": 2821,
      "Grow": 2822,
      "spectr": 2823,
      "77": 2824,
      "oper": 2825,
      "structural": 2826,
      "developed": 2827,
      "quality": 2828,
      "version": 2829,
      "bundle": 2830,
      "88": 2831,
      "thus": 2832,
      "fraction": 2833,
      "ination": 2834,
      "bed": 2835,
      "approach": 2836,
      "matrix": 2837,
      "PDMS": 2838,
      "MoS2": 2839,
      "research": 2840,
      "efﬁ": 2841,
      "diﬀerent": 2842,
      "electronic": 2843,
      "59": 2844,
      "emp": 2845,
      "cellent": 2846,
      "sensi": 2847,
      "53": 2848,
      "tional": 2849,
      "800": 2850,
      "tun": 2851,
      "level": 2852,
      "1000": 2853,
      "seen": 2854,
      "cir": 2855,
      "molecules": 2856,
      "adsorption": 2857,
      "modulus": 2858,
      "Information": 2859,
      "Nanoscale": 2860,
      "Wei": 2861,
      "arison": 2862,
      "_AB": 2863,
      "controlled": 2864,
      "ﬁcation": 2865,
      "%)": 2866,
      "2e": 2867,
      "channel": 2868,
      "those": 2869,
      "tak": 2870,
      "onto": 2871,
      "important": 2872,
      "ins": 2873,
      "mixture": 2874,
      "sho": 2875,
      "discus": 2876,
      "signiﬁcant": 2877,
      "amorph": 2878,
      "support": 2879,
      "annealing": 2880,
      "D_AB": 2881,
      "Cont": 2882,
      "Al2O3": 2883,
      "optim": 2884,
      "carried": 2885,
      "uble": 2886,
      "made": 2887,
      "bar": 2888,
      "maximum": 2889,
      "BM": 2890,
      "amorphous": 2891,
      "ceived": 2892,
      "walls": 2893,
      "N_metal_NP": 2894,
      "paren": 2895,
      "weight": 2896,
      "role": 2897,
      "At": 2898,
      "even": 2899,
      "acet": 2900,
      "Huang": 2901,
      "bility": 2902,
      "elas": 2903,
      "decrease": 2904,
      "storage": 2905,
      "NC": 2906,
      "N_NP": 2907,
      "pect": 2908,
      "thode": 2909,
      "doped": 2910,
      "6e": 2911,
      "1021": 2912,
      "lected": 2913,
      "O4": 2914,
      "sus": 2915,
      "025": 2916,
      "room": 2917,
      "GO": 2918,
      "bre": 2919,
      "allow": 2920,
      "ond": 2921,
      "excellent": 2922,
      "many": 2923,
      "Eff": 2924,
      "ring": 2925,
      "Synthesis": 2926,
      "technique": 2927,
      "zone": 2928,
      "teg": 2929,
      "Catalyst": 2930,
      "400": 2931,
      "linear": 2932,
      "activity": 2933,
      "Gas": 2934,
      "51": 2935,
      "acs": 2936,
      "experiments": 2937,
      "faces": 2938,
      "sever": 2939,
      "signific": 2940,
      "mes": 2941,
      "appe": 2942,
      "decomposition": 2943,
      "EE": 2944,
      "solid": 2945,
      "differ": 2946,
      "factor": 2947,
      "02": 2948,
      "loc": 2949,
      "occur": 2950,
      "cording": 2951,
      "61": 2952,
      "Na": 2953,
      "inj": 2954,
      "investigated": 2955,
      "Cor": 2956,
      "ER": 2957,
      "ply": 2958,
      "illar": 2959,
      "had": 2960,
      "relation": 2961,
      "dom": 2962,
      "Growth": 2963,
      "ru": 2964,
      "China": 2965,
      "BN": 2966,
      "crib": 2967,
      "end": 2968,
      "fied": 2969,
      "NPs": 2970,
      "should": 2971,
      "Col": 2972,
      "http": 2973,
      "pul": 2974,
      "cep": 2975,
      "J_C": 2976,
      "ference": 2977,
      "03": 2978,
      "self": 2979,
      "intensity": 2980,
      "04": 2981,
      "Soc": 2982,
      "strate": 2983,
      "specific": 2984,
      "Q_STP": 2985,
      "ens": 2986,
      "2003": 2987,
      "mak": 2988,
      "reach": 2989,
      "Ke": 2990,
      "los": 2991,
      "wide": 2992,
      "adhes": 2993,
      "sugges": 2994,
      "around": 2995,
      "situ": 2996,
      "cathode": 2997,
      "mV": 2998,
      "new": 2999,
      "2000": 3000,
      "plane": 3001,
      "buck": 3002,
      "Str": 3003,
      "reduced": 3004,
      "vac": 3005,
      "aerogel": 3006,
      "Sol": 3007,
      "Supporting": 3008,
      "measurement": 3009,
      "vent": 3010,
      "PAN": 3011,
      "Electron": 3012,
      "89": 3013,
      "gl": 3014,
      "gu": 3015,
      "Surf": 3016,
      "sequent": 3017,
      "semic": 3018,
      "directly": 3019,
      "Vi": 3020,
      "ok": 3021,
      "62": 3022,
      "diffusion": 3023,
      "simp": 3024,
      "dynam": 3025,
      "CNTF": 3026,
      "Q_proc": 3027,
      "Trans": 3028,
      "initial": 3029,
      "nowled": 3030,
      "Hy": 3031,
      "OR": 3032,
      "down": 3033,
      "journal": 3034,
      "point": 3035,
      "sele": 3036,
      "ﬁrst": 3037,
      "pper": 3038,
      "ley": 3039,
      "ason": 3040,
      "_c": 3041,
      "ize": 3042,
      "Depart": 3043,
      "graphi": 3044,
      "significant": 3045,
      "mit": 3046,
      "ton": 3047,
      "stine": 3048,
      "Published": 3049,
      "supported": 3050,
      "Vol": 3051,
      "DW": 3052,
      "fication": 3053,
      "ah": 3054,
      "07": 3055,
      "chematic": 3056,
      "characteristics": 3057,
      "84": 3058,
      "ondu": 3059,
      "Department": 3060,
      "ung": 3061,
      "attributed": 3062,
      "spectrum": 3063,
      "dependent": 3064,
      "/(": 3065,
      "U_avg": 3066,
      "c_A": 3067,
      "standing": 3068,
      "absor": 3069,
      "application": 3070,
      "k_c": 3071,
      "demonstrated": 3072,
      "emit": 3073,
      "2002": 3074,
      "wafer": 3075,
      "az": 3076,
      "related": 3077,
      "achieved": 3078,
      "iting": 3079,
      "vertical": 3080,
      "PANI": 3081,
      "bul": 3082,
      "phen": 3083,
      "3e": 3084,
      "ching": 3085,
      "stable": 3086,
      "mun": 3087,
      "aff": 3088,
      "smaller": 3089,
      "hor": 3090,
      "graphite": 3091,
      "asi": 3092,
      "tom": 3093,
      "indicates": 3094,
      "detail": 3095,
      "lamin": 3096,
      "Bo": 3097,
      "available": 3098,
      "Align": 3099,
      "Mechan": 3100,
      "feed": 3101,
      "Instit": 3102,
      "including": 3103,
      "pin": 3104,
      "ura": 3105,
      "agg": 3106,
      "cribed": 3107,
      "Ab": 3108,
      "mis": 3109,
      "characterization": 3110,
      "showing": 3111,
      "Resul": 3112,
      "thermo": 3113,
      "test": 3114,
      "uum": 3115,
      "uration": 3116,
      "Sub": 3117,
      "idi": 3118,
      "110": 3119,
      "improved": 3120,
      "cepted": 3121,
      "conn": 3122,
      "mail": 3123,
      "bin": 3124,
      "several": 3125,
      "CC": 3126,
      "dri": 3127,
      "va": 3128,
      "ports": 3129,
      "parent": 3130,
      "double": 3131,
      "Micro": 3132,
      "ample": 3133,
      "022": 3134,
      "MA": 3135,
      "effects": 3136,
      "authors": 3137,
      "HR": 3138,
      "pure": 3139,
      "wet": 3140,
      "ciety": 3141,
      "better": 3142,
      "All": 3143,
      "SiC": 3144,
      "sto": 3145,
      "changes": 3146,
      "ential": 3147,
      "79": 3148,
      "Results": 3149,
      "peri": 3150,
      "rect": 3151,
      "nanowi": 3152,
      "microsco": 3153,
      "indicating": 3154,
      "loss": 3155,
      "remain": 3156,
      "ij": 3157,
      "speciﬁc": 3158,
      "LC": 3159,
      "pore": 3160,
      "pristine": 3161,
      "08": 3162,
      "nor": 3163,
      "let": 3164,
      "fibers": 3165,
      "Cross": 3166,
      "Physics": 3167,
      "adi": 3168,
      "MAN": 3169,
      "resol": 3170,
      "mosph": 3171,
      "off": 3172,
      "real": 3173,
      "polar": 3174,
      "rical": 3175,
      "reveal": 3176,
      "estimated": 3177,
      "2021": 3178,
      "integ": 3179,
      "Cho": 3180,
      "Moreover": 3181,
      "USC": 3182,
      "When": 3183,
      "rand": 3184,
      "plac": 3185,
      "ill": 3186,
      "orientation": 3187,
      "lack": 3188,
      "dimensional": 3189,
      "ink": 3190,
      "loy": 3191,
      "bot": 3192,
      "umm": 3193,
      "MP": 3194,
      "fiber": 3195,
      "RIPT": 3196,
      "Online": 3197,
      "defects": 3198,
      "MANUSC": 3199,
      "inside": 3200,
      "MANUSCRIPT": 3201,
      "delivered": 3202,
      "Thus": 3203,
      "72": 3204,
      "Met": 3205,
      "Nanotechnology": 3206,
      "elastic": 3207,
      "mentary": 3208,
      "solar": 3209,
      "still": 3210,
      "studied": 3211,
      "efficient": 3212,
      "Sc": 3213,
      "uel": 3214,
      "ith": 3215,
      "Char": 3216,
      "processes": 3217,
      "effective": 3218,
      "4e": 3219,
      "carrier": 3220,
      "nucleation": 3221,
      "XPS": 3222,
      "approxim": 3223,
      "Institute": 3224,
      "Society": 3225,
      "mg": 3226,
      "open": 3227,
      "treated": 3228,
      "hot": 3229,
      "induced": 3230,
      "few": 3231,
      "S1": 3232,
      "curve": 3233,
      "09": 3234,
      "copper": 3235,
      "organic": 3236,
      "orig": 3237,
      "products": 3238,
      "vironment": 3239,
      "semicondu": 3240,
      "Ka": 3241,
      "suc": 3242,
      "loaded": 3243,
      "inum": 3244,
      "Single": 3245,
      "thod": 3246,
      "Process": 3247,
      "them": 3248,
      "atmosph": 3249,
      "assum": 3250,
      "ined": 3251,
      "comparison": 3252,
      "Mar": 3253,
      "ão": 3254,
      "presented": 3255,
      "abor": 3256,
      "relatively": 3257,
      "possible": 3258,
      "ably": 3259,
      "inset": 3260,
      "determined": 3261,
      "Ko": 3262,
      "Mul": 3263,
      "illu": 3264,
      "lat": 3265,
      "contrib": 3266,
      "scanning": 3267,
      "lling": 3268,
      "na": 3269,
      "izon": 3270,
      "hel": 3271,
      "need": 3272,
      "ﬁgure": 3273,
      "Lin": 3274,
      "deg": 3275,
      "molecular": 3276,
      "distance": 3277,
      "86": 3278,
      "supercapacitors": 3279,
      "containing": 3280,
      "raction": 3281,
      "Aligned": 3282,
      "inci": 3283,
      "AF": 3284,
      "Compo": 3285,
      "mac": 3286,
      "Ref": 3287,
      "TiO2": 3288,
      "ior": 3289,
      "systems": 3290,
      "RD": 3291,
      "volution": 3292,
      "Par": 3293,
      "06": 3294,
      "PA": 3295,
      "groups": 3296,
      "online": 3297,
      "Per": 3298,
      "UT": 3299,
      "tex": 3300,
      "e23": 3301,
      "evapor": 3302,
      "dx": 3303,
      "tics": 3304,
      "ultra": 3305,
      "bulk": 3306,
      "Qu": 3307,
      "Cheng": 3308,
      "92": 3309,
      "employ": 3310,
      "path": 3311,
      "plasma": 3312,
      "ave": 3313,
      "itation": 3314,
      "adj": 3315,
      "first": 3316,
      "phys": 3317,
      "View": 3318,
      "Step": 3319,
      "chir": 3320,
      "resi": 3321,
      "transmission": 3322,
      "ﬂo": 3323,
      "flexible": 3324,
      "ref": 3325,
      "ually": 3326,
      "van": 3327,
      "ques": 3328,
      "alle": 3329,
      "transition": 3330,
      "random": 3331,
      "MnO2": 3332,
      "Experiment": 3333,
      "roly": 3334,
      "evalu": 3335,
      "NW": 3336,
      "inner": 3337,
      "exc": 3338,
      "96": 3339,
      "assist": 3340,
      "150": 3341,
      "arrow": 3342,
      "put": 3343,
      "uk": 3344,
      "vacuum": 3345,
      "600": 3346,
      "bro": 3347,
      "TS": 3348,
      "terms": 3349,
      "following": 3350,
      "gap": 3351,
      "comple": 3352,
      "standard": 3353,
      "local": 3354,
      "sions": 3355,
      "Furthermore": 3356,
      "SU": 3357,
      "ses": 3358,
      "91": 3359,
      "Fan": 3360,
      "facial": 3361,
      "kn": 3362,
      "Fil": 3363,
      "mL": 3364,
      "ﬂex": 3365,
      "util": 3366,
      "supercapacitor": 3367,
      "120": 3368,
      "rein": 3369,
      "place": 3370,
      "spun": 3371,
      "ik": 3372,
      "geomet": 3373,
      "bottom": 3374,
      "ash": 3375,
      "feature": 3376,
      "concentr": 3377,
      "placed": 3378,
      "TG": 3379,
      "ude": 3380,
      "toward": 3381,
      "otro": 3382,
      "Un": 3383,
      "Des": 3384,
      "maintain": 3385,
      "........": 3386,
      "tions": 3387,
      "inﬂu": 3388,
      "Ox": 3389,
      "tration": 3390,
      "appear": 3391,
      "_Fe": 3392,
      "microscope": 3393,
      "degree": 3394,
      "76": 3395,
      "hydroph": 3396,
      "Act": 3397,
      "ei": 3398,
      "IT": 3399,
      "Nature": 3400,
      "thium": 3401,
      "sat": 3402,
      "bal": 3403,
      "sensing": 3404,
      "Dai": 3405,
      "mmet": 3406,
      "batteries": 3407,
      "2D": 3408,
      "rap": 3409,
      "cycle": 3410,
      "H4": 3411,
      "illustr": 3412,
      "ual": 3413,
      "ze": 3414,
      "Wall": 3415,
      "pub": 3416,
      "har": 3417,
      "og": 3418,
      "known": 3419,
      "perme": 3420,
      "ged": 3421,
      "great": 3422,
      "Multi": 3423,
      "Jo": 3424,
      "Received": 3425,
      "short": 3426,
      "compon": 3427,
      "species": 3428,
      "hand": 3429,
      "ama": 3430,
      "ft": 3431,
      "ory": 3432,
      "develop": 3433,
      "N2": 3434,
      "Technol": 3435,
      "From": 3436,
      "ferred": 3437,
      "axis": 3438,
      "decreased": 3439,
      "ologies": 3440,
      "horizon": 3441,
      "otal": 3442,
      "provide": 3443,
      "verse": 3444,
      "TION": 3445,
      "oid": 3446,
      "Graphene": 3447,
      "Here": 3448,
      "bio": 3449,
      "conven": 3450,
      "</": 3451,
      "rich": 3452,
      "0254": 3453,
      "Op": 3454,
      "eﬃ": 3455,
      "pected": 3456,
      "Sen": 3457,
      "commer": 3458,
      "ACCE": 3459,
      "spinning": 3460,
      "Total": 3461,
      "cool": 3462,
      "rang": 3463,
      "273": 3464,
      "resolution": 3465,
      "lease": 3466,
      "da": 3467,
      "2001": 3468,
      "graphitic": 3469,
      "dry": 3470,
      "imped": 3471,
      "success": 3472,
      "ﬂoating": 3473,
      "reﬂ": 3474,
      "Sim": 3475,
      "mber": 3476,
      "aj": 3477,
      "enhancement": 3478,
      "display": 3479,
      "plementary": 3480,
      "Thermal": 3481,
      "cl": 3482,
      "slight": 3483,
      "areal": 3484,
      "static": 3485,
      "XRD": 3486,
      "ciency": 3487,
      "outer": 3488,
      "N_metal_total": 3489,
      "Struct": 3490,
      "Commun": 3491,
      "71": 3492,
      "Based": 3493,
      "space": 3494,
      "lor": 3495,
      "valent": 3496,
      "considered": 3497,
      "Ru": 3498,
      "ging": 3499,
      "National": 3500,
      "described": 3501,
      "axial": 3502,
      "Accepted": 3503,
      "Vertically": 3504,
      "ions": 3505,
      "ima": 3506,
      "Key": 3507,
      "shape": 3508,
      "AFM": 3509,
      "Ga": 3510,
      "expected": 3511,
      "fract": 3512,
      "PTED": 3513,
      "ACCEPTED": 3514,
      "82": 3515,
      "ament": 3516,
      "Super": 3517,
      "SS": 3518,
      "mid": 3519,
      "quanti": 3520,
      "here": 3521,
      "spac": 3522,
      "impur": 3523,
      "yarns": 3524,
      "nanoparticle": 3525,
      "ii": 3526,
      "tip": 3527,
      "separ": 3528,
      "close": 3529,
      "oring": 3530,
      "shif": 3531,
      "assumed": 3532,
      "normal": 3533,
      "sur": 3534,
      "nanocomposites": 3535,
      "T_": 3536,
      "purity": 3537,
      "nowledge": 3538,
      "67e": 3539,
      "densities": 3540,
      "Han": 3541,
      "compar": 3542,
      "patterned": 3543,
      "review": 3544,
      "pyroly": 3545,
      "93": 3546,
      "ami": 3547,
      "deformation": 3548,
      "given": 3549,
      "allel": 3550,
      "ae": 3551,
      "heated": 3552,
      "Pr": 3553,
      "kine": 3554,
      "bending": 3555,
      "94": 3556,
      "lm": 3557,
      "ases": 3558,
      "highest": 3559,
      "Character": 3560,
      "upl": 3561,
      "nature": 3562,
      "tur": 3563,
      "Electrochemical": 3564,
      "74": 3565,
      "information": 3566,
      "cost": 3567,
      "Fin": 3568,
      "old": 3569,
      "doping": 3570,
      "ject": 3571,
      ".)": 3572,
      "plan": 3573,
      "haus": 3574,
      "atory": 3575,
      "700": 3576,
      "magni": 3577,
      "ath": 3578,
      "interfacial": 3579,
      "xx": 3580,
      "exist": 3581,
      "Fer": 3582,
      "wid": 3583,
      "1013": 3584,
      "domin": 3585,
      "022e23": 3586,
      "ological": 3587,
      "El": 3588,
      "magnetic": 3589,
      "83": 3590,
      "mark": 3591,
      "ral": 3592,
      "reason": 3593,
      "============": 3594,
      "mainly": 3595,
      "============================": 3596,
      "RBM": 3597,
      "proposed": 3598,
      "radiation": 3599,
      "Experimental": 3600,
      ",”": 3601,
      "critical": 3602,
      "width": 3603,
      "Ge": 3604,
      "By": 3605,
      "iao": 3606,
      "stat": 3607,
      "dense": 3608,
      "contr": 3609,
      "drople": 3610,
      "ﬁn": 3611,
      "oung": 3612,
      "adhesion": 3613,
      "count": 3614,
      "cham": 3615,
      "crystalline": 3616,
      "isotro": 3617,
      "Dres": 3618,
      "Bi": 3619,
      "ship": 3620,
      "vier": 3621,
      "mann": 3622,
      "add": 3623,
      "near": 3624,
      "plate": 3625,
      "draw": 3626,
      "being": 3627,
      "parallel": 3628,
      "limited": 3629,
      "FCCVD": 3630,
      "visco": 3631,
      "ener": 3632,
      "example": 3633,
      "A_cross": 3634,
      "introduced": 3635,
      "%.": 3636,
      "Interfaces": 3637,
      "wavelength": 3638,
      "preparation": 3639,
      "link": 3640,
      "edu": 3641,
      "collected": 3642,
      "2022": 3643,
      "pack": 3644,
      "cept": 3645,
      "anode": 3646,
      "advant": 3647,
      "below": 3648,
      "element": 3649,
      "fy": 3650,
      "promo": 3651,
      "cut": 3652,
      "fuel": 3653,
      "fast": 3654,
      "Shi": 3655,
      "puri": 3656,
      "followed": 3657,
      "exhibit": 3658,
      "rated": 3659,
      "decreases": 3660,
      "ep": 3661,
      "sal": 3662,
      "81": 3663,
      "shi": 3664,
      "sequently": 3665,
      "simple": 3666,
      "environment": 3667,
      "eﬀect": 3668,
      "7e": 3669,
      "back": 3670,
      "crystal": 3671,
      "interactions": 3672,
      "oriented": 3673,
      "erarch": 3674,
      "XX": 3675,
      "foam": 3676,
      "compression": 3677,
      "impedance": 3678,
      "junction": 3679,
      "electronics": 3680,
      "previously": 3681,
      "explain": 3682,
      "aboratory": 3683,
      "concentrations": 3684,
      "ides": 3685,
      "ml": 3686,
      "³.": 3687,
      "networks": 3688,
      "assembly": 3689,
      "cho": 3690,
      "Mechanical": 3691,
      "pillar": 3692,
      "approximately": 3693,
      "probe": 3694,
      "pan": 3695,
      "lines": 3696,
      "common": 3697,
      "indicate": 3698,
      "types": 3699,
      "nanostructures": 3700,
      "tri": 3701,
      "etric": 3702,
      "indicated": 3703,
      "ta": 3704,
      "overall": 3705,
      "scatter": 3706,
      "argon": 3707,
      "105": 3708,
      "ME": 3709,
      "variation": 3710,
      "detection": 3711,
      "leads": 3712,
      "NO": 3713,
      "glass": 3714,
      "tially": 3715,
      "Dressel": 3716,
      "amine": 3717,
      "produce": 3718,
      "clearly": 3719,
      "ani": 3720,
      "tice": 3721,
      "loating": 3722,
      "With": 3723,
      "1039": 3724,
      "101325": 3725,
      "izing": 3726,
      "generated": 3727,
      "Dresselhaus": 3728,
      "coupl": 3729,
      "MWNTs": 3730,
      "stretching": 3731,
      "injection": 3732,
      "CrossRef": 3733,
      "TE": 3734,
      "four": 3735,
      "Applied": 3736,
      "complete": 3737,
      "pie": 3738,
      "efﬁcient": 3739,
      "ρ_NP": 3740,
      "peci": 3741,
      "Young": 3742,
      "ada": 3743,
      "ickel": 3744,
      "cedure": 3745,
      "etching": 3746,
      "enter": 3747,
      "stage": 3748,
      "exhibited": 3749,
      "Dis": 3750,
      "employed": 3751,
      "react": 3752,
      "asy": 3753,
      "since": 3754,
      "processing": 3755,
      "conducted": 3756,
      "alumina": 3757,
      "conventional": 3758,
      "vated": 3759,
      "nanocomposite": 3760,
      "methane": 3761,
      "unique": 3762,
      "consistent": 3763,
      "IR": 3764,
      "tren": 3765,
      "USA": 3766,
      "sevier": 3767,
      "sensitivity": 3768,
      "recor": 3769,
      "roscopic": 3770,
      "SE": 3771,
      "gram": 3772,
      "promis": 3773,
      "patterns": 3774,
      "techniques": 3775,
      "assisted": 3776,
      "Cal": 3777,
      "ferences": 3778,
      "TGA": 3779,
      "aspect": 3780,
      "resin": 3781,
      "ris": 3782,
      "extra": 3783,
      "capsul": 3784,
      "asso": 3785,
      "activation": 3786,
      "Pow": 3787,
      "leading": 3788,
      "td": 3789,
      "almost": 3790,
      "chamber": 3791,
      "predic": 3792,
      "Fo": 3793,
      "ired": 3794,
      "Nanotechnol": 3795,
      "pores": 3796,
      "NH": 3797,
      "obic": 3798,
      "Lo": 3799,
      "Schematic": 3800,
      "difference": 3801,
      "rig": 3802,
      "post": 3803,
      "nanowires": 3804,
      "ummary": 3805,
      "Surface": 3806,
      "circu": 3807,
      "reco": 3808,
      "commercial": 3809,
      "aque": 3810,
      "recent": 3811,
      "ciated": 3812,
      "tested": 3813,
      "promising": 3814,
      "spacing": 3815,
      "Ter": 3816,
      "conﬁr": 3817,
      "Ltd": 3818,
      "theore": 3819,
      "Although": 3820,
      "conden": 3821,
      "ﬃﬃ": 3822,
      "ster": 3823,
      "cycling": 3824,
      "AA": 3825,
      "lection": 3826,
      "semiconducting": 3827,
      "later": 3828,
      "itable": 3829,
      "characterized": 3830,
      "fracture": 3831,
      "oy": 3832,
      "according": 3833,
      "structured": 3834,
      "900": 3835,
      "Down": 3836,
      "ear": 3837,
      "evi": 3838,
      "procedure": 3839,
      "ously": 3840,
      "transparent": 3841,
      "reactions": 3842,
      "Introdu": 3843,
      "CM": 3844,
      "evolution": 3845,
      "meter": 3846,
      "come": 3847,
      "agnetic": 3848,
      "neg": 3849,
      "106": 3850,
      "itive": 3851,
      "Guo": 3852,
      "FT": 3853,
      "M_avg": 3854,
      "Wa": 3855,
      "ethylene": 3856,
      "bas": 3857,
      "inity": 3858,
      "conduct": 3859,
      "homo": 3860,
      "black": 3861,
      "1002": 3862,
      "ratios": 3863,
      "ication": 3864,
      "Correspon": 3865,
      "fin": 3866,
      "provided": 3867,
      "Roy": 3868,
      "d_NP": 3869,
      "does": 3870,
      "additional": 3871,
      "HRTEM": 3872,
      "GPa": 3873,
      "lithium": 3874,
      "achieve": 3875,
      "clean": 3876,
      "Effect": 3877,
      "easi": 3878,
      "uary": 3879,
      "detect": 3880,
      "however": 3881,
      "lock": 3882,
      "foil": 3883,
      ");": 3884,
      "bri": 3885,
      "omen": 3886,
      "particular": 3887,
      "certain": 3888,
      "powder": 3889,
      "8e": 3890,
      "Sil": 3891,
      "Proper": 3892,
      "af": 3893,
      "xed": 3894,
      "Cao": 3895,
      "required": 3896,
      "ﬂexible": 3897,
      "composed": 3898,
      "hydrocarbon": 3899,
      "city": 3900,
      "broad": 3901,
      "Introduction": 3902,
      "N_A": 3903,
      "period": 3904,
      "contrast": 3905,
      "attach": 3906,
      "hex": 3907,
      "multiwalled": 3908,
      "MPa": 3909,
      "connected": 3910,
      "sivity": 3911,
      "tention": 3912,
      "confir": 3913,
      "Polymer": 3914,
      "adjust": 3915,
      "ffer": 3916,
      "weak": 3917,
      "Ul": 3918,
      "PV": 3919,
      "che": 3920,
      "ud": 3921,
      "thio": 3922,
      "ultr": 3923,
      "ators": 3924,
      "Fe3": 3925,
      "rapid": 3926,
      "interest": 3927,
      "uture": 3928,
      "Hydro": 3929,
      "ose": 3930,
      "dependence": 3931,
      "provides": 3932,
      "bran": 3933,
      "land": 3934,
      "Power": 3935,
      "H2O": 3936,
      "erarchical": 3937,
      "Mc": 3938,
      "_per": 3939,
      "era": 3940,
      "conversion": 3941,
      "utes": 3942,
      "growing": 3943,
      "author": 3944,
      "PVA": 3945,
      "hn": 3946,
      "ump": 3947,
      "ira": 3948,
      "stain": 3949,
      "180": 3950,
      "Letters": 3951,
      "gene": 3952,
      "cies": 3953,
      "ources": 3954,
      "drop": 3955,
      "Song": 3956,
      "heter": 3957,
      "CA": 3958,
      "iency": 3959,
      "amond": 3960,
      "Choi": 3961,
      "attra": 3962,
      "chall": 3963,
      "degra": 3964,
      "ext": 3965,
      "vary": 3966,
      "encapsul": 3967,
      "property": 3968,
      "taken": 3969,
      "hum": 3970,
      "signiﬁcantly": 3971,
      "tance": 3972,
      "amb": 3973,
      "prob": 3974,
      "tern": 3975,
      "sl": 3976,
      "ord": 3977,
      "Man": 3978,
      "generation": 3979,
      "revealed": 3980,
      "aging": 3981,
      "limit": 3982,
      "medi": 3983,
      "Using": 3984,
      "107": 3985,
      "Ack": 3986,
      "250": 3987,
      "elec": 3988,
      "channels": 3989,
      "Direct": 3990,
      "factors": 3991,
      "inﬂuence": 3992,
      "velocity": 3993,
      "pyrolysis": 3994,
      "PP": 3995,
      "upon": 3996,
      "laminar": 3997,
      "Ber": 3998,
      "Imp": 3999,
      "ko": 4000,
      "idized": 4001,
      "hydrophobic": 4002,
      "THz": 4003,
      "physical": 4004,
      "750": 4005,
      "Feng": 4006,
      "narrow": 4007,
      "resis": 4008,
      "PET": 4009,
      "Bio": 4010,
      "fund": 4011,
      "iley": 4012,
      "CH4": 4013,
      "dispersed": 4014,
      "y_C": 4015,
      "minim": 4016,
      "tests": 4017,
      "aw": 4018,
      "caused": 4019,
      "improvement": 4020,
      "associated": 4021,
      "nickel": 4022,
      "rack": 4023,
      "capacitors": 4024,
      "cule": 4025,
      "Solid": 4026,
      "public": 4027,
      "Yan": 4028,
      "Conclu": 4029,
      "cn": 4030,
      "forced": 4031,
      "core": 4032,
      "1999": 4033,
      "literature": 4034,
      "evaporation": 4035,
      "0e": 4036,
      "Gao": 4037,
      "impurities": 4038,
      "Ren": 4039,
      "uscri": 4040,
      "Then": 4041,
      "diffraction": 4042,
      "ALD": 4043,
      "1023": 4044,
      "equation": 4045,
      "Characterization": 4046,
      "Oh": 4047,
      "UV": 4048,
      "reference": 4049,
      "sitive": 4050,
      "utter": 4051,
      "Properties": 4052,
      "aqueous": 4053,
      "Av": 4054,
      "CFs": 4055,
      "lue": 4056,
      "Supplementary": 4057,
      "scattering": 4058,
      "Tan": 4059,
      "bonding": 4060,
      "plat": 4061,
      "indle": 4062,
      "longer": 4063,
      "C2H2": 4064,
      "oft": 4065,
      "battery": 4066,
      "Mas": 4067,
      "bound": 4068,
      ")²": 4069,
      "sil": 4070,
      "GF": 4071,
      "NA": 4072,
      "Peng": 4073,
      "itect": 4074,
      "molar": 4075,
      "fluence": 4076,
      "recorded": 4077,
      "314": 4078,
      "Laboratory": 4079,
      "vities": 4080,
      "shear": 4081,
      "pinen": 4082,
      "wind": 4083,
      "complex": 4084,
      "Compos": 4085,
      "Corresponding": 4086,
      "map": 4087,
      "novel": 4088,
      "sectional": 4089,
      "mel": 4090,
      "uppinen": 4091,
      "either": 4092,
      "mally": 4093,
      "State": 4094,
      "Wiley": 4095,
      "tane": 4096,
      "onal": 4097,
      "ications": 4098,
      "full": 4099,
      "simulation": 4100,
      "ants": 4101,
      "abil": 4102,
      "key": 4103,
      "atmosphere": 4104,
      "areas": 4105,
      "ire": 4106,
      "m2": 4107,
      "meso": 4108,
      "Fabric": 4109,
      "superior": 4110,
      "Walled": 4111,
      "Car": 4112,
      "PM": 4113,
      "pra": 4114,
      "molecule": 4115,
      "discussed": 4116,
      "make": 4117,
      "1s": 4118,
      "S3": 4119,
      "han": 4120,
      "Liang": 4121,
      "investigate": 4122,
      "aerosol": 4123,
      "versus": 4124,
      "transferred": 4125,
      ")).": 4126,
      "055": 4127,
      "EC": 4128,
      "hal": 4129,
      "ufact": 4130,
      "ordered": 4131,
      "slightly": 4132,
      "rowave": 4133,
      "Fun": 4134,
      "Small": 4135,
      "ough": 4136,
      "multiple": 4137,
      "Ty": 4138,
      "itecture": 4139,
      "Or": 4140,
      "suitable": 4141,
      "stead": 4142,
      "cyclic": 4143,
      "thiophene": 4144,
      "AG": 4145,
      "Ne": 4146,
      "104": 4147,
      "signal": 4148,
      "dispersion": 4149,
      "diag": 4150,
      "rant": 4151,
      "Temp": 4152,
      "Auth": 4153,
      "Water": 4154,
      "Xie": 4155,
      "References": 4156,
      "Electrical": 4157,
      "ET": 4158,
      "NR": 4159,
      "hu": 4160,
      "1998": 4161,
      "reports": 4162,
      "vapour": 4163,
      "Since": 4164,
      "esting": 4165,
      "techn": 4166,
      "Kauppinen": 4167,
      "invol": 4168,
      "New": 4169,
      "umar": 4170,
      "shell": 4171,
      "Mass": 4172,
      "identi": 4173,
      "adsor": 4174,
      "dynamic": 4175,
      "stack": 4176,
      "resulted": 4177,
      "mixed": 4178,
      "MO": 4179,
      "ones": 4180,
      "enab": 4181,
      "101": 4182,
      "easily": 4183,
      "dam": 4184,
      "technology": 4185,
      "Zheng": 4186,
      "conducting": 4187,
      "therefore": 4188,
      "fav": 4189,
      "greater": 4190,
      "ints": 4191,
      "alco": 4192,
      "exhibits": 4193,
      "Photo": 4194,
      "PH": 4195,
      "ﬁt": 4196,
      "rot": 4197,
      "rometer": 4198,
      "negative": 4199,
      "theoretical": 4200,
      "mely": 4201,
      "seu": 4202,
      "floating": 4203,
      "ulin": 4204,
      "forming": 4205,
      "efficiency": 4206,
      "development": 4207,
      "buckling": 4208,
      "features": 4209,
      "Fi": 4210,
      "Je": 4211,
      "³):": 4212,
      "methyl": 4213,
      "clear": 4214,
      "ways": 4215,
      "among": 4216,
      "templ": 4217,
      "mention": 4218,
      "advanced": 4219,
      "CP": 4220,
      "forces": 4221,
      "OL": 4222,
      "tro": 4223,
      "uy": 4224,
      "usually": 4225,
      "103": 4226,
      "spec": 4227,
      "impact": 4228,
      "removal": 4229,
      "viscosity": 4230,
      "DC": 4231,
      "simulations": 4232,
      "phenomen": 4233,
      "zo": 4234,
      "dation": 4235,
      "mu": 4236,
      "wire": 4237,
      "best": 4238,
      "demonstrate": 4239,
      "9e": 4240,
      "Ba": 4241,
      "111": 4242,
      "lies": 4243,
      "Diff": 4244,
      ")^": 4245,
      "Please": 4246,
      "across": 4247,
      "manuscri": 4248,
      "ert": 4249,
      "edge": 4250,
      "covered": 4251,
      "exposed": 4252,
      "Advanced": 4253,
      "precursors": 4254,
      "flux": 4255,
      "cm3": 4256,
      "micrograph": 4257,
      "ws": 4258,
      "conclu": 4259,
      "isotropic": 4260,
      "Yam": 4261,
      "ato": 4262,
      "orod": 4263,
      "ayan": 4264,
      "capacitive": 4265,
      "Funct": 4266,
      "press": 4267,
      "sputter": 4268,
      "observation": 4269,
      "mine": 4270,
      "deﬁ": 4271,
      "prote": 4272,
      "ice": 4273,
      "RESU": 4274,
      "jor": 4275,
      "tally": 4276,
      "imen": 4277,
      "reduce": 4278,
      "One": 4279,
      "read": 4280,
      "ceed": 4281,
      "steps": 4282,
      "apply": 4283,
      "removed": 4284,
      "ppm": 4285,
      "acetylene": 4286,
      "Windle": 4287,
      "coll": 4288,
      "aluminum": 4289,
      "012": 4290,
      "Cur": 4291,
      "future": 4292,
      "y_": 4293,
      "preci": 4294,
      "speed": 4295,
      "whereas": 4296,
      "stretchable": 4297,
      "Composites": 4298,
      "bor": 4299,
      "vs": 4300,
      "err": 4301,
      "significantly": 4302,
      "Rel": 4303,
      "RESUL": 4304,
      "Jan": 4305,
      "Physical": 4306,
      "graphy": 4307,
      "chirality": 4308,
      "corpor": 4309,
      "Method": 4310,
      "original": 4311,
      "⁻²": 4312,
      "Finally": 4313,
      "kV": 4314,
      "usivity": 4315,
      "Downloaded": 4316,
      "AB": 4317,
      "ised": 4318,
      "life": 4319,
      "conduction": 4320,
      "homogene": 4321,
      "del": 4322,
      "RESULTS": 4323,
      "Hart": 4324,
      "itch": 4325,
      "apan": 4326,
      "DI": 4327,
      "heater": 4328,
      "wist": 4329,
      "lie": 4330,
      "DS": 4331,
      "ime": 4332,
      "itting": 4333,
      "again": 4334,
      "H2S": 4335,
      "DWCNTs": 4336,
      "bil": 4337,
      "repe": 4338,
      "formance": 4339,
      "geometry": 4340,
      "mmetric": 4341,
      "transmit": 4342,
      "inc": 4343,
      "ES": 4344,
      "Gmb": 4345,
      "asib": 4346,
      "combination": 4347,
      "contribution": 4348,
      "window": 4349,
      "IEE": 4350,
      "facil": 4351,
      "rever": 4352,
      "excitation": 4353,
      "awa": 4354,
      "obvious": 4355,
      "gases": 4356,
      "architecture": 4357,
      "Array": 4358,
      "relationship": 4359,
      "dynamics": 4360,
      "GmbH": 4361,
      "IEEE": 4362,
      "extre": 4363,
      "successfully": 4364,
      "002": 4365,
      "derived": 4366,
      "crack": 4367,
      "chlor": 4368,
      "aggreg": 4369,
      "Ca": 4370,
      "fric": 4371,
      "ctor": 4372,
      "center": 4373,
      "Addition": 4374,
      "annealed": 4375,
      "Royal": 4376,
      "elding": 4377,
      "romagnetic": 4378,
      "lattice": 4379,
      "Fabrication": 4380,
      "*(": 4381,
      "strum": 4382,
      "Acta": 4383,
      "IS": 4384,
      "OT": 4385,
      "Yo": 4386,
      "ole": 4387,
      "electrons": 4388,
      "ND": 4389,
      "how": 4390,
      "ive": 4391,
      "ets": 4392,
      "agree": 4393,
      "Shen": 4394,
      "auge": 4395,
      "comes": 4396,
      "2p": 4397,
      "Japan": 4398,
      "might": 4399,
      "steel": 4400,
      "Tian": 4401,
      "added": 4402,
      "transist": 4403,
      "selective": 4404,
      "analyzed": 4405,
      "carb": 4406,
      "))": 4407,
      "GC": 4408,
      "zi": 4409,
      "mechanisms": 4410,
      "components": 4411,
      "Aj": 4412,
      "Mat": 4413,
      "Pe": 4414,
      "did": 4415,
      "propor": 4416,
      "words": 4417,
      "cular": 4418,
      "voltam": 4419,
      "pol": 4420,
      "Recent": 4421,
      "Scho": 4422,
      "rGO": 4423,
      "affect": 4424,
      "glu": 4425,
      "separation": 4426,
      "exter": 4427,
      ")/": 4428,
      "testing": 4429,
      "sip": 4430,
      "regions": 4431,
      "prac": 4432,
      "102": 4433,
      "stru": 4434,
      "Waals": 4435,
      "major": 4436,
      "functionalized": 4437,
      "break": 4438,
      "zation": 4439,
      "unit": 4440,
      "possi": 4441,
      "stock": 4442,
      "Fu": 4443,
      "Chang": 4444,
      "Optical": 4445,
      "Ms": 4446,
      "Mem": 4447,
      "twist": 4448,
      "cose": 4449,
      "occurs": 4450,
      "Ho": 4451,
      "NS": 4452,
      "run": 4453,
      "sess": 4454,
      "reson": 4455,
      "lengths": 4456,
      "elements": 4457,
      "Kang": 4458,
      "means": 4459,
      "circuit": 4460,
      "bres": 4461,
      "suggests": 4462,
      "mentioned": 4463,
      "First": 4464,
      "report": 4465,
      "EP": 4466,
      "magnit": 4467,
      "PC": 4468,
      "sts": 4469,
      "tension": 4470,
      "osity": 4471,
      "compound": 4472,
      "determine": 4473,
      "Substrate": 4474,
      "DF": 4475,
      "Ding": 4476,
      "Condu": 4477,
      "Sources": 4478,
      "pas": 4479,
      "zer": 4480,
      "solutions": 4481,
      "SCs": 4482,
      "blue": 4483,
      "incorpor": 4484,
      "Ed": 4485,
      "ham": 4486,
      "another": 4487,
      "108": 4488,
      "observ": 4489,
      "rad": 4490,
      "hierarchical": 4491,
      "acetone": 4492,
      "Hou": 4493,
      "gies": 4494,
      "working": 4495,
      "collect": 4496,
      "spo": 4497,
      "theory": 4498,
      "proﬁ": 4499,
      "ameters": 4500,
      "plots": 4501,
      "Go": 4502,
      "PI": 4503,
      "dicular": 4504,
      "Pan": 4505,
      "gether": 4506,
      "note": 4507,
      "reinforced": 4508,
      "NH3": 4509,
      "350": 4510,
      "dec": 4511,
      "barri": 4512,
      "block": 4513,
      "series": 4514,
      "Tak": 4515,
      "address": 4516,
      "fig": 4517,
      "oton": 4518,
      "condens": 4519,
      "Dr": 4520,
      "counter": 4521,
      "109": 4522,
      "layered": 4523,
      "assembled": 4524,
      "alcohol": 4525,
      ".​": 4526,
      "Den": 4527,
      "ski": 4528,
      "science": 4529,
      "eﬃcient": 4530,
      "School": 4531,
      "dielectric": 4532,
      "sensitive": 4533,
      "tan": 4534,
      "ulation": 4535,
      "Enh": 4536,
      "bridge": 4537,
      "Highly": 4538,
      "T_proc": 4539,
      "Temperature": 4540,
      "Jin": 4541,
      "expo": 4542,
      "droplet": 4543,
      "NF": 4544,
      "perpen": 4545,
      "sizes": 4546,
      "shift": 4547,
      "Ajayan": 4548,
      "May": 4549,
      "Sai": 4550,
      "tle": 4551,
      "embed": 4552,
      "VCH": 4553,
      "microstructure": 4554,
      "require": 4555,
      "Sensor": 4556,
      "far": 4557,
      "ijima": 4558,
      "Tang": 4559,
      "star": 4560,
      "efﬁciency": 4561,
      "published": 4562,
      "coefficient": 4563,
      "prop": 4564,
      "nanosheets": 4565,
      "Elsevier": 4566,
      "Calcul": 4567,
      ")-": 4568,
      "ﬁbres": 4569,
      "cm1": 4570,
      "3a": 4571,
      "Our": 4572,
      "positive": 4573,
      "ights": 4574,
      "dissip": 4575,
      "crystallinity": 4576,
      "Contro": 4577,
      "Kore": 4578,
      "NWs": 4579,
      "550": 4580,
      "Jun": 4581,
      "together": 4582,
      "cale": 4583,
      "suspen": 4584,
      "emitter": 4585,
      "gments": 4586,
      "discussion": 4587,
      "magnitude": 4588,
      "ask": 4589,
      "Mean": 4590,
      "According": 4591,
      "Metal": 4592,
      "asibulin": 4593,
      "Luo": 4594,
      "During": 4595,
      "Eq": 4596,
      "Mac": 4597,
      "gar": 4598,
      "lan": 4599,
      "morphologies": 4600,
      "external": 4601,
      "ica": 4602,
      "termin": 4603,
      "nanorod": 4604,
      "fib": 4605,
      "fail": 4606,
      "setup": 4607,
      "Structure": 4608,
      "gest": 4609,
      "heim": 4610,
      "kinetics": 4611,
      "rost": 4612,
      "Analy": 4613,
      "degradation": 4614,
      "bur": 4615,
      "having": 4616,
      "possess": 4617,
      "facilit": 4618,
      "Qi": 4619,
      "right": 4620,
      "⁻¹": 4621,
      "entific": 4622,
      "varying": 4623,
      "RT": 4624,
      "hard": 4625,
      "ky": 4626,
      "ala": 4627,
      "ram": 4628,
      "hai": 4629,
      "squ": 4630,
      "ched": 4631,
      "Electrochem": 4632,
      "Iijima": 4633,
      "Ku": 4634,
      "Qian": 4635,
      "S4": 4636,
      "examin": 4637,
      "Sha": 4638,
      "soft": 4639,
      "rather": 4640,
      "They": 4641,
      "corresponds": 4642,
      "Nasibulin": 4643,
      "defect": 4644,
      "Lang": 4645,
      "permeability": 4646,
      "Found": 4647,
      "e4": 4648,
      "Parameters": 4649,
      "ambient": 4650,
      "bare": 4651,
      "tap": 4652,
      "erical": 4653,
      "reached": 4654,
      "2a": 4655,
      "Low": 4656,
      "macroscopic": 4657,
      "Flexible": 4658,
      "tile": 4659,
      "immer": 4660,
      "gradi": 4661,
      "Applications": 4662,
      "likely": 4663,
      "perpendicular": 4664,
      "hybri": 4665,
      "pressed": 4666,
      "ideal": 4667,
      "lag": 4668,
      "tolu": 4669,
      "poor": 4670,
      "intr": 4671,
      "general": 4672,
      "polarization": 4673,
      "Saito": 4674,
      "Summary": 4675,
      "base": 4676,
      "pH": 4677,
      "polymers": 4678,
      "schematic": 4679,
      "prevent": 4680,
      "Cryst": 4681,
      "dr": 4682,
      "lip": 4683,
      "lab": 4684,
      "ashi": 4685,
      "ital": 4686,
      "straight": 4687,
      ",[": 4688,
      "850": 4689,
      "Mg": 4690,
      "cation": 4691,
      "za": 4692,
      "COMP": 4693,
      "encies": 4694,
      "chain": 4695,
      "dem": 4696,
      "Films": 4697,
      "angles": 4698,
      "manufact": 4699,
      "distributions": 4700,
      "equi": 4701,
      "sw": 4702,
      "toluene": 4703,
      "Ts": 4704,
      "bene": 4705,
      "uses": 4706,
      "113": 4707,
      "IB": 4708,
      "aba": 4709,
      "capacitor": 4710,
      "VG": 4711,
      "cum": 4712,
      "chi": 4713,
      "optimized": 4714,
      "Performance": 4715,
      "towards": 4716,
      "pes": 4717,
      "attached": 4718,
      "Tor": 4719,
      "tough": 4720,
      "operating": 4721,
      "devi": 4722,
      "modiﬁed": 4723,
      "Center": 4724,
      "celer": 4725,
      "thermally": 4726,
      "glucose": 4727,
      "Hong": 4728,
      "ier": 4729,
      "zh": 4730,
      "eric": 4731,
      "vib": 4732,
      "tall": 4733,
      "points": 4734,
      "nearly": 4735,
      "internal": 4736,
      "ons": 4737,
      "issu": 4738,
      "Har": 4739,
      "kin": 4740,
      "states": 4741,
      "entation": 4742,
      "And": 4743,
      "hollow": 4744,
      "strongly": 4745,
      "PHY": 4746,
      "ored": 4747,
      "bucky": 4748,
      "maintained": 4749,
      "cru": 4750,
      "ue": 4751,
      "alk": 4752,
      "oxidized": 4753,
      "details": 4754,
      "incident": 4755,
      "practical": 4756,
      "CAL": 4757,
      "ticles": 4758,
      "designed": 4759,
      "national": 4760,
      "metals": 4761,
      "ionic": 4762,
      "prim": 4763,
      "horizontal": 4764,
      "Korea": 4765,
      "Cap": 4766,
      "dep": 4767,
      "Cell": 4768,
      "yn": 4769,
      "Deposition": 4770,
      "uyama": 4771,
      "cases": 4772,
      "cannot": 4773,
      "planar": 4774,
      "Hydrogen": 4775,
      "hetero": 4776,
      "tor": 4777,
      "explained": 4778,
      "650": 4779,
      "respect": 4780,
      "4a": 4781,
      "fect": 4782,
      "abs": 4783,
      "cathod": 4784,
      "manuscript": 4785,
      "redo": 4786,
      "bond": 4787,
      "distributed": 4788,
      "prof": 4789,
      "insic": 4790,
      "evaluated": 4791,
      "pecially": 4792,
      "observations": 4793,
      "ATION": 4794,
      "Bul": 4795,
      "Paper": 4796,
      "detailed": 4797,
      "1a": 4798,
      "insul": 4799,
      "115": 4800,
      "activated": 4801,
      "Foundation": 4802,
      "Kumar": 4803,
      "conﬁg": 4804,
      "forms": 4805,
      "lomer": 4806,
      "charging": 4807,
      "stiff": 4808,
      "agreement": 4809,
      "inger": 4810,
      "ured": 4811,
      "solvent": 4812,
      "istics": 4813,
      "smo": 4814,
      "frared": 4815,
      "bands": 4816,
      "mn": 4817,
      "shar": 4818,
      "EDOT": 4819,
      "prior": 4820,
      "proof": 4821,
      "Figures": 4822,
      "clust": 4823,
      "Mes": 4824,
      "wear": 4825,
      "ino": 4826,
      "Bar": 4827,
      "Hata": 4828,
      "ef": 4829,
      "inary": 4830,
      "nanof": 4831,
      "grid": 4832,
      "bonds": 4833,
      "inser": 4834,
      "simultane": 4835,
      "................": 4836,
      "muir": 4837,
      "See": 4838,
      "Common": 4839,
      "seudo": 4840,
      "redox": 4841,
      "845": 4842,
      "turn": 4843,
      "Cre": 4844,
      "chim": 4845,
      "berg": 4846,
      "capability": 4847,
      "opti": 4848,
      "thank": 4849,
      "allows": 4850,
      "influence": 4851,
      "umn": 4852,
      "160": 4853,
      "dissol": 4854,
      "Yuan": 4855,
      "Due": 4856,
      "Thermo": 4857,
      "widely": 4858,
      "targ": 4859,
      "randomly": 4860,
      "placement": 4861,
      "125": 4862,
      "Preparation": 4863,
      "origin": 4864,
      "mobility": 4865,
      "2O4": 4866,
      "Mor": 4867,
      "slo": 4868,
      "owing": 4869,
      "microwave": 4870,
      "Cui": 4871,
      "equip": 4872,
      "Maruyama": 4873,
      "barrier": 4874,
      "Med": 4875,
      "spl": 4876,
      "nanoscale": 4877,
      "horizontally": 4878,
      "depth": 4879,
      "PEDOT": 4880,
      "pump": 4881,
      "arrange": 4882,
      "represents": 4883,
      "ranging": 4884,
      "trend": 4885,
      "lateral": 4886,
      "112": 4887,
      "typically": 4888,
      "prin": 4889,
      "_per_": 4890,
      "Fut": 4891,
      "NI": 4892,
      "especially": 4893,
      "EDS": 4894,
      "Ultra": 4895,
      "equivalent": 4896,
      "Mi": 4897,
      "visible": 4898,
      "reducing": 4899,
      "y_C2": 4900,
      "PHYSI": 4901,
      "inde": 4902,
      "alination": 4903,
      "controlling": 4904,
      "agglomer": 4905,
      "pillars": 4906,
      "Ju": 4907,
      "avoid": 4908,
      "salt": 4909,
      "RA": 4910,
      "kept": 4911,
      "changed": 4912,
      "chiral": 4913,
      "ITO": 4914,
      "Langmuir": 4915,
      "until": 4916,
      "III": 4917,
      "She": 4918,
      "ﬁbre": 4919,
      "vibration": 4920,
      "Futaba": 4921,
      "PU": 4922,
      "vo": 4923,
      "term": 4924,
      "While": 4925,
      "strial": 4926,
      "mAh": 4927,
      "Keywords": 4928,
      "Mil": 4929,
      "Sel": 4930,
      "mM": 4931,
      "vin": 4932,
      "left": 4933,
      "067e": 4934,
      "Jung": 4935,
      "necess": 4936,
      "challeng": 4937,
      "nat": 4938,
      "penet": 4939,
      "roughness": 4940,
      "3b": 4941,
      "Spect": 4942,
      "decor": 4943,
      "shor": 4944,
      "diﬀusion": 4945,
      "embedded": 4946,
      "Py": 4947,
      "effe": 4948,
      "diﬀer": 4949,
      "Note": 4950,
      "Calculations": 4951,
      "ibility": 4952,
      "meric": 4953,
      "integrated": 4954,
      "illustrated": 4955,
      "Arrays": 4956,
      "IP": 4957,
      "Pd": 4958,
      "remains": 4959,
      "Final": 4960,
      "HO": 4961,
      "Such": 4962,
      "sum": 4963,
      "130": 4964,
      "varied": 4965,
      "transmittance": 4966,
      "remove": 4967,
      "CNTFs": 4968,
      "Pres": 4969,
      "tem": 4970,
      "Rep": 4971,
      "sources": 4972,
      "140": 4973,
      "gan": 4974,
      "tips": 4975,
      "icient": 4976,
      "depic": 4977,
      "ometer": 4978,
      "Simil": 4979,
      "dominant": 4980,
      "PHYSICAL": 4981,
      "Do": 4982,
      "Ye": 4983,
      "colo": 4984,
      "nanomaterials": 4985,
      "radius": 4986,
      "entire": 4987,
      "deﬁned": 4988,
      "5b": 4989,
      "Xiao": 4990,
      "Yao": 4991,
      "accur": 4992,
      "works": 4993,
      "buil": 4994,
      "models": 4995,
      "UTATION": 4996,
      "AGE": 4997,
      "COMPUTATION": 4998,
      "Acknowledge": 4999,
      "Additionally": 5000,
      "Del": 5001,
      "acceler": 5002,
      "exten": 5003,
      "carp": 5004,
      "International": 5005,
      "comparable": 5006,
      "Bu": 5007,
      "conve": 5008,
      "partial": 5009,
      "STAGE": 5010,
      "clusters": 5011,
      "ensure": 5012,
      "percent": 5013,
      "NO3": 5014,
      "illary": 5015,
      "rele": 5016,
      "foc": 5017,
      "interfaces": 5018,
      "Environ": 5019,
      "contacts": 5020,
      "condensation": 5021,
      "intrinsic": 5022,
      "inch": 5023,
      "becomes": 5024,
      "jo": 5025,
      "imaging": 5026,
      "porosity": 5027,
      "generally": 5028,
      "silica": 5029,
      "compressive": 5030,
      "advantages": 5031,
      "page": 5032,
      "sign": 5033,
      "column": 5034,
      "shaped": 5035,
      "cence": 5036,
      "satur": 5037,
      "bert": 5038,
      "filtration": 5039,
      "fabricate": 5040,
      "dried": 5041,
      "Bai": 5042,
      "Field": 5043,
      "Part": 5044,
      "dot": 5045,
      "gold": 5046,
      "114": 5047,
      "located": 5048,
      "Author": 5049,
      "frost": 5050,
      "dually": 5051,
      "litho": 5052,
      "engineering": 5053,
      "170": 5054,
      "Measure": 5055,
      "2O5": 5056,
      "Nor": 5057,
      "oxides": 5058,
      "reversible": 5059,
      "Cy": 5060,
      "Inferred": 5061,
      "Hence": 5062,
      "Mon": 5063,
      "tensive": 5064,
      "Conclusions": 5065,
      "Cs": 5066,
      "vim": 5067,
      "diamond": 5068,
      "ride": 5069,
      "subsequent": 5070,
      "noted": 5071,
      "1200": 5072,
      "2c": 5073,
      "Sn": 5074,
      "stream": 5075,
      "idity": 5076,
      "strains": 5077,
      "Oct": 5078,
      "received": 5079,
      "controll": 5080,
      "Verlag": 5081,
      "coupled": 5082,
      "Im": 5083,
      "although": 5084,
      "eting": 5085,
      "follows": 5086,
      "emitters": 5087,
      "failure": 5088,
      "hed": 5089,
      "116": 5090,
      "2b": 5091,
      "END": 5092,
      "Both": 5093,
      "feedstock": 5094,
      "atmospheric": 5095,
      ")³": 5096,
      "Lar": 5097,
      "Heat": 5098,
      "completely": 5099,
      "Cam": 5100,
      "osph": 5101,
      "figure": 5102,
      "optimal": 5103,
      "Ato": 5104,
      "Gre": 5105,
      "gal": 5106,
      "irradiation": 5107,
      "friction": 5108,
      "exposure": 5109,
      "gradient": 5110,
      "787": 5111,
      "Rao": 5112,
      "phire": 5113,
      "CuO": 5114,
      "utilized": 5115,
      "Lim": 5116,
      "kov": 5117,
      "alloy": 5118,
      "Cat": 5119,
      "pose": 5120,
      "radial": 5121,
      "acsami": 5122,
      "wetting": 5123,
      "Vap": 5124,
      "pseudo": 5125,
      "Nanomaterials": 5126,
      "numbers": 5127,
      "depends": 5128,
      "encapsulated": 5129,
      "Fran": 5130,
      "eres": 5131,
      "La": 5132,
      "V_NP": 5133,
      "esides": 5134,
      "ﬂux": 5135,
      "dle": 5136,
      "pi": 5137,
      "uators": 5138,
      "1996": 5139,
      "consisting": 5140,
      "TA": 5141,
      "Two": 5142,
      "Xi": 5143,
      "ense": 5144,
      "ends": 5145,
      "1038": 5146,
      "apphire": 5147,
      "1e11": 5148,
      "levels": 5149,
      "Hor": 5150,
      "Not": 5151,
      "zing": 5152,
      "cover": 5153,
      "amic": 5154,
      "continuously": 5155,
      "nanowire": 5156,
      "KOH": 5157,
      "ening": 5158,
      "wires": 5159,
      "----": 5160,
      "trap": 5161,
      "investigation": 5162,
      "cooling": 5163,
      "5a": 5164,
      "EIS": 5165,
      "stabil": 5166,
      "Nit": 5167,
      "ado": 5168,
      "log": 5169,
      "include": 5170,
      "cam": 5171,
      "ody": 5172,
      "lier": 5173,
      "uniformly": 5174,
      "suggesting": 5175,
      "cooled": 5176,
      "SM": 5177,
      "oth": 5178,
      "rit": 5179,
      "reﬂection": 5180,
      "advantage": 5181,
      "Van": 5182,
      "proble": 5183,
      "spray": 5184,
      "operation": 5185,
      "help": 5186,
      "BP": 5187,
      "RH": 5188,
      "Yum": 5189,
      "je": 5190,
      "ção": 5191,
      "web": 5192,
      "estab": 5193,
      "Dy": 5194,
      "Hi": 5195,
      "charged": 5196,
      "Zhong": 5197,
      "Mole": 5198,
      "component": 5199,
      "Min": 5200,
      "selected": 5201,
      "sulf": 5202,
      "potenti": 5203,
      "phenomenon": 5204,
      "WI": 5205,
      "ground": 5206,
      "rin": 5207,
      "inﬁl": 5208,
      "ings": 5209,
      "monit": 5210,
      "transistors": 5211,
      "Wein": 5212,
      "detected": 5213,
      "reveals": 5214,
      "examined": 5215,
      "gate": 5216,
      "independent": 5217,
      "isol": 5218,
      "macro": 5219,
      "diagram": 5220,
      "4b": 5221,
      "directions": 5222,
      "distin": 5223,
      "adhesive": 5224,
      "ita": 5225,
      "stract": 5226,
      "Stu": 5227,
      "ﬂuid": 5228,
      "Yumura": 5229,
      "Xia": 5230,
      "bust": 5231,
      "ered": 5232,
      "enz": 5233,
      "become": 5234,
      "ida": 5235,
      "capillary": 5236,
      "buffer": 5237,
      "take": 5238,
      "binding": 5239,
      "necessary": 5240,
      "stiffness": 5241,
      "ril": 5242,
      "qual": 5243,
      "Thin": 5244,
      "gravim": 5245,
      "metry": 5246,
      "chemistry": 5247,
      "regard": 5248,
      "medium": 5249,
      "Electronic": 5250,
      "absorb": 5251,
      "Typ": 5252,
      "1b": 5253,
      "belie": 5254,
      "Figs": 5255,
      "Volume": 5256,
      "favor": 5257,
      "Creative": 5258,
      "STEM": 5259,
      "conver": 5260,
      "home": 5261,
      "aster": 5262,
      "Review": 5263,
      "selectivity": 5264,
      "stainless": 5265,
      "Acknowledgements": 5266,
      "oﬀ": 5267,
      "Cha": 5268,
      "Stre": 5269,
      "aerogels": 5270,
      "Commons": 5271,
      "BS": 5272,
      "kind": 5273,
      "infrared": 5274,
      "January": 5275,
      "Vis": 5276,
      "ilic": 5277,
      "angular": 5278,
      "Electrochim": 5279,
      "micrographs": 5280,
      "ﬁll": 5281,
      "Program": 5282,
      "CNF": 5283,
      "combined": 5284,
      "residual": 5285,
      "Under": 5286,
      "lap": 5287,
      "directional": 5288,
      "Prof": 5289,
      "compounds": 5290,
      "often": 5291,
      "arc": 5292,
      "conne": 5293,
      "pressing": 5294,
      "dissipation": 5295,
      "(~": 5296,
      "Mur": 5297,
      "OER": 5298,
      "V2O5": 5299,
      "tubular": 5300,
      "modified": 5301,
      "Membran": 5302,
      "hen": 5303,
      "modes": 5304,
      "Dong": 5305,
      "Her": 5306,
      "Non": 5307,
      "conductance": 5308,
      "450": 5309,
      "RO": 5310,
      "agonal": 5311,
      "Fe2O3": 5312,
      "output": 5313,
      "atively": 5314,
      "functionalization": 5315,
      "Gr": 5316,
      "Ger": 5317,
      "target": 5318,
      "Americ": 5319,
      "dark": 5320,
      "ker": 5321,
      "meas": 5322,
      "phon": 5323,
      "rown": 5324,
      "Fund": 5325,
      "aﬀ": 5326,
      "xylene": 5327,
      "orption": 5328,
      "ara": 5329,
      "Indu": 5330,
      "Current": 5331,
      "American": 5332,
      "Gener": 5333,
      "Num": 5334,
      "San": 5335,
      "performances": 5336,
      "Weinheim": 5337,
      "%),": 5338,
      "Function": 5339,
      "Nan": 5340,
      "S8": 5341,
      "220": 5342,
      "cles": 5343,
      "iv": 5344,
      "ﬁlled": 5345,
      "ana": 5346,
      "supporting": 5347,
      "supply": 5348,
      "demonstrates": 5349,
      "altern": 5350,
      "interlayer": 5351,
      "lugar": 5352,
      "elemental": 5353,
      "resistivity": 5354,
      "cand": 5355,
      "ev": 5356,
      "uation": 5357,
      "Libr": 5358,
      "aki": 5359,
      "antum": 5360,
      "cold": 5361,
      "mesoporous": 5362,
      "arm": 5363,
      "117": 5364,
      "Compared": 5365,
      "hold": 5366,
      "Design": 5367,
      "amental": 5368,
      "decorated": 5369,
      "gover": 5370,
      "ford": 5371,
      "akes": 5372,
      "ribution": 5373,
      "equal": 5374,
      "template": 5375,
      "homogeneous": 5376,
      "215": 5377,
      "aco": 5378,
      "pass": 5379,
      "chip": 5380,
      "ilib": 5381,
      "depending": 5382,
      "Ny": 5383,
      "1063": 5384,
      "config": 5385,
      "plotted": 5386,
      "ORR": 5387,
      "half": 5388,
      "Es": 5389,
      "ald": 5390,
      "Chi": 5391,
      "_Ar": 5392,
      "correspond": 5393,
      "frequencies": 5394,
      "Fe3O4": 5395,
      "establish": 5396,
      "dio": 5397,
      "whole": 5398,
      "improving": 5399,
      "Enhanced": 5400,
      "ht": 5401,
      "sapphire": 5402,
      "attention": 5403,
      "118": 5404,
      "absorber": 5405,
      "greatly": 5406,
      "damage": 5407,
      "ez": 5408,
      "jected": 5409,
      "anisotropic": 5410,
      "least": 5411,
      "Material": 5412,
      "binder": 5413,
      "gravimetric": 5414,
      "Lic": 5415,
      "ware": 5416,
      "ult": 5417,
      "filled": 5418,
      "MWNT": 5419,
      "GaA": 5420,
      "mapping": 5421,
      "absence": 5422,
      "AR": 5423,
      "KGaA": 5424,
      "cyl": 5425,
      "BF": 5426,
      "Sp": 5427,
      "vano": 5428,
      "understand": 5429,
      "decreasing": 5430,
      "providing": 5431,
      "plastic": 5432,
      "T_STP": 5433,
      "Sensors": 5434,
      "deviation": 5435,
      "atm": 5436,
      "decl": 5437,
      "amounts": 5438,
      "conﬁrmed": 5439,
      "extremely": 5440,
      "Ion": 5441,
      "phosph": 5442,
      "gradually": 5443,
      "displacement": 5444,
      "understanding": 5445,
      "1997": 5446,
      "platinum": 5447,
      "slope": 5448,
      "TO": 5449,
      "hm": 5450,
      "oresis": 5451,
      "Rober": 5452,
      "Aca": 5453,
      "R1": 5454,
      "rary": 5455,
      "subst": 5456,
      "Sciences": 5457,
      "presents": 5458,
      "Comparison": 5459,
      "amplit": 5460,
      "Ok": 5461,
      "ison": 5462,
      "dium": 5463,
      "MD": 5464,
      "body": 5465,
      "cise": 5466,
      "enced": 5467,
      "robust": 5468,
      "proton": 5469,
      "methanol": 5470,
      "dimensions": 5471,
      "C2H4": 5472,
      "middle": 5473,
      "Sal": 5474,
      "dur": 5475,
      "jection": 5476,
      "etc": 5477,
      "FeCo": 5478,
      "Transfer": 5479,
      "Kong": 5480,
      "rise": 5481,
      "recently": 5482,
      "CS": 5483,
      "slow": 5484,
      "uno": 5485,
      "strategy": 5486,
      "recovery": 5487,
      "1100": 5488,
      "Cas": 5489,
      "GP": 5490,
      "suggest": 5491,
      "declare": 5492,
      "3d": 5493,
      "JE": 5494,
      "enough": 5495,
      "cobal": 5496,
      "exp": 5497,
      "viewed": 5498,
      "coatings": 5499,
      "CNx": 5500,
      "Jeong": 5501,
      "candid": 5502,
      "Aero": 5503,
      "Mag": 5504,
      "Spr": 5505,
      "Sep": 5506,
      "System": 5507,
      "packed": 5508,
      "saturated": 5509,
      "HT": 5510,
      "Layer": 5511,
      "n_C": 5512,
      "summ": 5513,
      "ya": 5514,
      "offer": 5515,
      "construct": 5516,
      "desired": 5517,
      "regime": 5518,
      "appears": 5519,
      "boundary": 5520,
      "square": 5521,
      "yu": 5522,
      "aceous": 5523,
      "observe": 5524,
      "confim": 5525,
      "ki": 5526,
      "ining": 5527,
      "arrangement": 5528,
      "Wil": 5529,
      "max": 5530,
      "precip": 5531,
      "Roberts": 5532,
      "AS": 5533,
      "ann": 5534,
      "acqu": 5535,
      "sump": 5536,
      "upper": 5537,
      "tunnel": 5538,
      "pulse": 5539,
      "Functional": 5540,
      "Library": 5541,
      "CI": 5542,
      "route": 5543,
      "127": 5544,
      "Because": 5545,
      ".:": 5546,
      "Besides": 5547,
      "ks": 5548,
      "mation": 5549,
      "remark": 5550,
      "deion": 5551,
      "indentation": 5552,
      "frame": 5553,
      "iso": 5554,
      "ches": 5555,
      "glig": 5556,
      "Febr": 5557,
      "editing": 5558,
      "NiFe": 5559,
      "fractions": 5560,
      "buckypaper": 5561,
      "February": 5562,
      "Fang": 5563,
      "RS": 5564,
      "imet": 5565,
      "aka": 5566,
      "####": 5567,
      "Ano": 5568,
      "AUT": 5569,
      "If": 5570,
      "LS": 5571,
      "get": 5572,
      "mesh": 5573,
      "toughness": 5574,
      "Por": 5575,
      "kar": 5576,
      "olds": 5577,
      "perature": 5578,
      "agent": 5579,
      "Liquid": 5580,
      "neglig": 5581,
      "uniformity": 5582,
      "ga": 5583,
      "reli": 5584,
      "retention": 5585,
      "Devic": 5586,
      "532": 5587,
      "ARTICLE": 5588,
      "ﬁlter": 5589,
      "calculations": 5590,
      "Self": 5591,
      "Large": 5592,
      "HOR": 5593,
      "Mu": 5594,
      "Mol": 5595,
      "appropri": 5596,
      "driven": 5597,
      "sputtering": 5598,
      "wearable": 5599,
      "nanostructured": 5600,
      "angled": 5601,
      "iden": 5602,
      "syn": 5603,
      "crystals": 5604,
      "phenol": 5605,
      "H2SO4": 5606,
      "nanorods": 5607,
      "CT": 5608,
      "edges": 5609,
      "ussi": 5610,
      "electrostatic": 5611,
      "minutes": 5612,
      "suppl": 5613,
      "suggested": 5614,
      "needed": 5615,
      "energies": 5616,
      "Catal": 5617,
      "ests": 5618,
      "Tech": 5619,
      "TiN": 5620,
      "patterning": 5621,
      "reinforce": 5622,
      "Ben": 5623,
      "129": 5624,
      "Ald": 5625,
      "NiO": 5626,
      "supports": 5627,
      "Composite": 5628,
      "AUTHOR": 5629,
      "Sig": 5630,
      "Scan": 5631,
      "e22": 5632,
      "final": 5633,
      "ines": 5634,
      "motion": 5635,
      "parts": 5636,
      "corre": 5637,
      "human": 5638,
      "zoelectric": 5639,
      ",†": 5640,
      "DCNT": 5641,
      "O3": 5642,
      "done": 5643,
      "hin": 5644,
      "pite": 5645,
      "spectrometer": 5646,
      "210": 5647,
      "US": 5648,
      "igital": 5649,
      "Produ": 5650,
      "simultaneously": 5651,
      "Atomic": 5652,
      "theless": 5653,
      "sp2": 5654,
      "Among": 5655,
      "approaches": 5656,
      "PVDF": 5657,
      "Is": 5658,
      "omb": 5659,
      "lowest": 5660,
      "conducti": 5661,
      "hydrogel": 5662,
      "John": 5663,
      "spot": 5664,
      "BL": 5665,
      "Cai": 5666,
      "lying": 5667,
      "elim": 5668,
      "appeared": 5669,
      ".%": 5670,
      "2n": 5671,
      "Ful": 5672,
      "FIG": 5673,
      "bacter": 5674,
      "date": 5675,
      "fre": 5676,
      "gauge": 5677,
      "hence": 5678,
      "must": 5679,
      "1073": 5680,
      "apparent": 5681,
      "vir": 5682,
      "prefer": 5683,
      "Ob": 5684,
      "win": 5685,
      "sten": 5686,
      "perfect": 5687,
      "122": 5688,
      "Shim": 5689,
      "graphiti": 5690,
      "colour": 5691,
      "Aldrich": 5692,
      "MF": 5693,
      "Ten": 5694,
      "glo": 5695,
      "dia": 5696,
      "Also": 5697,
      "splitting": 5698,
      "cas": 5699,
      "sock": 5700,
      "stir": 5701,
      "collection": 5702,
      "matic": 5703,
      "kinetic": 5704,
      "Vapor": 5705,
      ",*": 5706,
      "não": 5707,
      "titan": 5708,
      "capture": 5709,
      "consists": 5710,
      "SION": 5711,
      "normalized": 5712,
      "packing": 5713,
      "ﬃﬃﬃﬃ": 5714,
      "confirmed": 5715,
      "against": 5716,
      "MgO": 5717,
      "Torr": 5718,
      "negligible": 5719,
      "Aug": 5720,
      "Kr": 5721,
      "easy": 5722,
      "oil": 5723,
      "cos": 5724,
      "123": 5725,
      "spon": 5726,
      "Proc": 5727,
      "princi": 5728,
      "Grant": 5729,
      "Mal": 5730,
      "damp": 5731,
      "reci": 5732,
      "carbonaceous": 5733,
      "April": 5734,
      "ribbon": 5735,
      "droplets": 5736,
      "detector": 5737,
      "smooth": 5738,
      "DA": 5739,
      "S5": 5740,
      "TCFs": 5741,
      "magne": 5742,
      "Baugh": 5743,
      "Recently": 5744,
      "Cambridge": 5745,
      "026": 5746,
      "Far": 5747,
      "Fac": 5748,
      "oro": 5749,
      "aged": 5750,
      "volta": 5751,
      "Diameter": 5752,
      "introduction": 5753,
      "injected": 5754,
      "Baughman": 5755,
      "Hay": 5756,
      "avi": 5757,
      "cat": 5758,
      "ism": 5759,
      "disc": 5760,
      "responsible": 5761,
      "AM": 5762,
      "e6": 5763,
      "Their": 5764,
      "133": 5765,
      "pyr": 5766,
      "equilib": 5767,
      "optimization": 5768,
      "allowed": 5769,
      "shorter": 5770,
      "Springer": 5771,
      "TED": 5772,
      "Vac": 5773,
      "gress": 5774,
      "anding": 5775,
      "Inc": 5776,
      "ird": 5777,
      "synthesize": 5778,
      "Section": 5779,
      "feeding": 5780,
      "displays": 5781,
      "repeated": 5782,
      "conﬁguration": 5783,
      "cobalt": 5784,
      "Br": 5785,
      "Kar": 5786,
      "Speci": 5787,
      "inst": 5788,
      "covalent": 5789,
      "pread": 5790,
      "Techn": 5791,
      "°,": 5792,
      "experi": 5793,
      "predicted": 5794,
      "silver": 5795,
      "PMMA": 5796,
      "HER": 5797,
      "Sample": 5798,
      "abund": 5799,
      "emer": 5800,
      "nitride": 5801,
      "lithography": 5802,
      "RSC": 5803,
      "call": 5804,
      "tail": 5805,
      "²):": 5806,
      "ﬁxed": 5807,
      "transverse": 5808,
      "green": 5809,
      "ceramic": 5810,
      "1c": 5811,
      "IN": 5812,
      "swe": 5813,
      "Three": 5814,
      "making": 5815,
      "thal": 5816,
      "Li2": 5817,
      "303": 5818,
      "positions": 5819,
      "Robertson": 5820,
      "Lab": 5821,
      "sin": 5822,
      "release": 5823,
      "coefﬁcient": 5824,
      "addi": 5825,
      "rium": 5826,
      "055845": 5827,
      "voltammetry": 5828,
      "6b": 5829,
      "Kin": 5830,
      "partially": 5831,
      "amplitude": 5832,
      "1D": 5833,
      "Fore": 5834,
      "mW": 5835,
      "itud": 5836,
      "omer": 5837,
      "precise": 5838,
      "modeling": 5839,
      "color": 5840,
      "prepare": 5841,
      "evaluate": 5842,
      "coupling": 5843,
      "Pur": 5844,
      "Vari": 5845,
      "access": 5846,
      "333e": 5847,
      "Actuators": 5848,
      "hexagonal": 5849,
      "dissolved": 5850,
      "514": 5851,
      "CR": 5852,
      "Just": 5853,
      "Val": 5854,
      "acent": 5855,
      "Density": 5856,
      "connection": 5857,
      "Vil": 5858,
      "ancing": 5859,
      "atus": 5860,
      "denot": 5861,
      "223": 5862,
      "relax": 5863,
      "applying": 5864,
      "appropriate": 5865,
      "Sigma": 5866,
      "M_Fe": 5867,
      "Nak": 5868,
      "ball": 5869,
      "fit": 5870,
      "riting": 5871,
      "tis": 5872,
      "constit": 5873,
      "ush": 5874,
      "ula": 5875,
      "nanostructure": 5876,
      "move": 5877,
      "compati": 5878,
      "electrocatalytic": 5879,
      "Shang": 5880,
      "resistances": 5881,
      "crucial": 5882,
      "measuring": 5883,
      "GHz": 5884,
      "HA": 5885,
      "Morph": 5886,
      "Net": 5887,
      "NAN": 5888,
      "ming": 5889,
      "wav": 5890,
      "wiley": 5891,
      "neigh": 5892,
      "reduces": 5893,
      "CO3": 5894,
      "JEOL": 5895,
      "flex": 5896,
      "seed": 5897,
      "Investig": 5898,
      "uchi": 5899,
      "mixing": 5900,
      "Natural": 5901,
      "aggregation": 5902,
      "Capac": 5903,
      "focused": 5904,
      "C3": 5905,
      "Det": 5906,
      "e5": 5907,
      "Instrum": 5908,
      "Se2": 5909,
      "initi": 5910,
      "defined": 5911,
      "entially": 5912,
      "wafers": 5913,
      "proﬁle": 5914,
      "Meanwhile": 5915,
      "thres": 5916,
      "esis": 5917,
      "lement": 5918,
      "cylin": 5919,
      "volum": 5920,
      "requires": 5921,
      "adjacent": 5922,
      "Available": 5923,
      "cathodes": 5924,
      "ober": 5925,
      "ρ_Fe": 5926,
      "coverage": 5927,
      "Chin": 5928,
      "Qiu": 5929,
      "distinct": 5930,
      "ork": 5931,
      "lective": 5932,
      "too": 5933,
      "190": 5934,
      "amples": 5935,
      "tures": 5936,
      "gives": 5937,
      "Singh": 5938,
      "adsorbed": 5939,
      "tape": 5940,
      "March": 5941,
      "uro": 5942,
      "vers": 5943,
      "oped": 5944,
      "signed": 5945,
      "makes": 5946,
      "integration": 5947,
      "primary": 5948,
      "vents": 5949,
      "mem": 5950,
      "yields": 5951,
      "sequence": 5952,
      "bias": 5953,
      "isolated": 5954,
      "Smal": 5955,
      "tability": 5956,
      "densiﬁcation": 5957,
      "effectively": 5958,
      "Cr": 5959,
      "anil": 5960,
      "atically": 5961,
      "ules": 5962,
      "account": 5963,
      "posite": 5964,
      "comput": 5965,
      "monol": 5966,
      "affected": 5967,
      "humidity": 5968,
      "October": 5969,
      "diode": 5970,
      "Ji": 5971,
      "void": 5972,
      "LEY": 5973,
      "973": 5974,
      "WILEY": 5975,
      "cen": 5976,
      "rating": 5977,
      "sand": 5978,
      "chased": 5979,
      "electromagnetic": 5980,
      "exceed": 5981,
      "odes": 5982,
      "Reyn": 5983,
      "COOH": 5984,
      "basis": 5985,
      "rapidly": 5986,
      "sharp": 5987,
      "TH": 5988,
      "seem": 5989,
      "focus": 5990,
      "grams": 5991,
      "produci": 5992,
      "NCs": 5993,
      "minimum": 5994,
      "Diffusivity": 5995,
      "July": 5996,
      "summar": 5997,
      "Smalley": 5998,
      "pm": 5999,
      "photon": 6000,
      "interesting": 6001,
      "rones": 6002,
      "thicknesses": 6003,
      "treatments": 6004,
      "FESEM": 6005,
      "representative": 6006,
      "eﬃciency": 6007,
      "earlier": 6008,
      "Fibers": 6009,
      "lifetime": 6010,
      "retain": 6011,
      "imide": 6012,
      "phy": 6013,
      "cially": 6014,
      "boo": 6015,
      "Terrones": 6016,
      "(∼": 6017,
      ")(": 6018,
      "e15": 6019,
      "ables": 6020,
      "contamin": 6021,
      "create": 6022,
      "Nanosci": 6023,
      "descri": 6024,
      "assess": 6025,
      "benz": 6026,
      "separated": 6027,
      "commonly": 6028,
      "ultrason": 6029,
      "enables": 6030,
      "phonon": 6031,
      "itudinal": 6032,
      "mF": 6033,
      "dil": 6034,
      "Chu": 6035,
      "pair": 6036,
      "limeter": 6037,
      "domain": 6038,
      "statistics": 6039,
      "evidence": 6040,
      "favorable": 6041,
      "Equ": 6042,
      "zero": 6043,
      "competing": 6044,
      "cult": 6045,
      "propag": 6046,
      "Batter": 6047,
      "Ci": 6048,
      "fl": 6049,
      "fron": 6050,
      "idation": 6051,
      "correlation": 6052,
      "EDX": 6053,
      "Discus": 6054,
      "asymmetric": 6055,
      "hydrocarbons": 6056,
      "Yamada": 6057,
      "4c": 6058,
      "Cd": 6059,
      "Pas": 6060,
      "005": 6061,
      "multiwall": 6062,
      "Abstract": 6063,
      "magniﬁcation": 6064,
      "7874": 6065,
      "Molecular": 6066,
      "Publish": 6067,
      "bly": 6068,
      "permission": 6069,
      "extensive": 6070,
      "126": 6071,
      "regn": 6072,
      "operated": 6073,
      "(%)": 6074,
      "spar": 6075,
      "tz": 6076,
      "yond": 6077,
      "assigned": 6078,
      "indrical": 6079,
      "displayed": 6080,
      "cylinder": 6081,
      "HCl": 6082,
      "Wen": 6083,
      "hour": 6084,
      "quite": 6085,
      "purchased": 6086,
      "reﬂect": 6087,
      "drawn": 6088,
      "ready": 6089,
      "hybrids": 6090,
      "sumption": 6091,
      "identical": 6092,
      "Dimen": 6093,
      "essential": 6094,
      "ibrary": 6095,
      "came": 6096,
      "Develo": 6097,
      "linked": 6098,
      "015": 6099,
      "3c": 6100,
      "Over": 6101,
      "NiP": 6102,
      "polymerization": 6103,
      "linel": 6104,
      "PEO": 6105,
      "vised": 6106,
      "existence": 6107,
      "possibility": 6108,
      "Brown": 6109,
      "Ta": 6110,
      "ja": 6111,
      "onlinel": 6112,
      "ays": 6113,
      "1e15": 6114,
      "changing": 6115,
      "optimum": 6116,
      "hydrophilic": 6117,
      "Typical": 6118,
      "016": 6119,
      "Xiang": 6120,
      "away": 6121,
      "worth": 6122,
      "fold": 6123,
      "delivery": 6124,
      "chosen": 6125,
      "onlinelibrary": 6126,
      "gment": 6127,
      "inated": 6128,
      "heights": 6129,
      "ads": 6130,
      "134": 6131,
      "foams": 6132,
      "014": 6133,
      "Iron": 6134,
      "Sou": 6135,
      "duration": 6136,
      "subsequently": 6137,
      "eﬀective": 6138,
      "Methods": 6139,
      "Analysis": 6140,
      "2C": 6141,
      "Deng": 6142,
      "Flow": 6143,
      "Hol": 6144,
      "Matter": 6145,
      "intensi": 6146,
      "Schmid": 6147,
      "fundamental": 6148,
      "6a": 6149,
      "950": 6150,
      "Pri": 6151,
      "oC": 6152,
      "sco": 6153,
      "entangled": 6154,
      "196": 6155,
      "useful": 6156,
      "Seo": 6157,
      "eﬀects": 6158,
      "Effects": 6159,
      "location": 6160,
      "occurred": 6161,
      "BNNT": 6162,
      "reflection": 6163,
      "junctions": 6164,
      "attracted": 6165,
      "software": 6166,
      "Nam": 6167,
      "faster": 6168,
      "kPa": 6169,
      "ﬁnan": 6170,
      "alter": 6171,
      "izations": 6172,
      "desorption": 6173,
      "dings": 6174,
      "633": 6175,
      "LED": 6176,
      "early": 6177,
      "mart": 6178,
      "124": 6179,
      "wood": 6180,
      "regular": 6181,
      "titanium": 6182,
      "DNA": 6183,
      "ey": 6184,
      "scre": 6185,
      "year": 6186,
      "².": 6187,
      "×(": 6188,
      "ﬂat": 6189,
      "ened": 6190,
      "beg": 6191,
      "compressed": 6192,
      "publication": 6193,
      "monitoring": 6194,
      "August": 6195,
      "011": 6196,
      "yet": 6197,
      "anm": 6198,
      "reproduci": 6199,
      "nanometer": 6200,
      "stric": 6201,
      "drawing": 6202,
      "ziol": 6203,
      "struc": 6204,
      "June": 6205,
      "supplied": 6206,
      "Four": 6207,
      "Jia": 6208,
      "Plas": 6209,
      "mach": 6210,
      "alth": 6211,
      "ites": 6212,
      "ustic": 6213,
      "processed": 6214,
      "Environment": 6215,
      "scien": 6216,
      "225": 6217,
      "P_": 6218,
      "ands": 6219,
      "ethyl": 6220,
      "Koziol": 6221,
      "reflect": 6222,
      "statis": 6223,
      "neighb": 6224,
      "aniline": 6225,
      "FA": 6226,
      "Solar": 6227,
      "cite": 6228,
      "accepted": 6229,
      "mobil": 6230,
      "variations": 6231,
      "Impro": 6232,
      "conductivities": 6233,
      "ESI": 6234,
      "Sw": 6235,
      "next": 6236,
      "input": 6237,
      "accum": 6238,
      "bonded": 6239,
      "Dece": 6240,
      "Ange": 6241,
      "estimate": 6242,
      "Bri": 6243,
      "Cent": 6244,
      "Tu": 6245,
      "Tun": 6246,
      "adop": 6247,
      "Liao": 6248,
      "subjected": 6249,
      "135": 6250,
      "researchers": 6251,
      "natural": 6252,
      "ores": 6253,
      "instead": 6254,
      "etra": 6255,
      "tember": 6256,
      "curing": 6257,
      "engine": 6258,
      "ished": 6259,
      "osmo": 6260,
      "Diamond": 6261,
      "secondary": 6262,
      "percentage": 6263,
      "September": 6264,
      "December": 6265,
      "Open": 6266,
      "care": 6267,
      "ji": 6268,
      "thi": 6269,
      "ascribed": 6270,
      "EMI": 6271,
      "morphological": 6272,
      "Electrodes": 6273,
      "1991": 6274,
      "little": 6275,
      "text": 6276,
      "zhou": 6277,
      "Flu": 6278,
      "Ha": 6279,
      "Miz": 6280,
      "WS2": 6281,
      "Zak": 6282,
      "articles": 6283,
      "expan": 6284,
      "behaviour": 6285,
      "cylindrical": 6286,
      "Nu": 6287,
      "enable": 6288,
      "carbons": 6289,
      "128": 6290,
      "hydrox": 6291,
      "cenews": 6292,
      "inuous": 6293,
      "give": 6294,
      "plays": 6295,
      "connect": 6296,
      "saturation": 6297,
      "advancedscien": 6298,
      "Pressure": 6299,
      "tunneling": 6300,
      "equilibrium": 6301,
      "Dimension": 6302,
      "Schmidt": 6303,
      "advancedsciencenews": 6304,
      "Mart": 6305,
      "Ser": 6306,
      "ka": 6307,
      "oven": 6308,
      "loch": 6309,
      "solute": 6310,
      "impregn": 6311,
      "ditions": 6312,
      "variety": 6313,
      "explored": 6314,
      "puriﬁcation": 6315,
      "GCD": 6316,
      "imetallic": 6317,
      "PF": 6318,
      "lation": 6319,
      "pn": 6320,
      "reactive": 6321,
      "chrom": 6322,
      "001": 6323,
      "131": 6324,
      "6667e": 6325,
      "Some": 6326,
      "Precursor": 6327,
      "illustration": 6328,
      "Scanning": 6329,
      "undergo": 6330,
      "analyses": 6331,
      "closed": 6332,
      "differences": 6333,
      "pathways": 6334,
      "successful": 6335,
      "collap": 6336,
      "Tod": 6337,
      "ares": 6338,
      "roll": 6339,
      "0000": 6340,
      "155": 6341,
      "soci": 6342,
      "scalable": 6343,
      "experimentally": 6344,
      "evident": 6345,
      "threshold": 6346,
      "028": 6347,
      "NCNT": 6348,
      "Wong": 6349,
      "119": 6350,
      "dop": 6351,
      "calib": 6352,
      "Republic": 6353,
      "Shin": 6354,
      "numer": 6355,
      "longitudinal": 6356,
      "ijing": 6357,
      "quantit": 6358,
      "Cyc": 6359,
      "Kh": 6360,
      "SR": 6361,
      "anal": 6362,
      "enes": 6363,
      "raz": 6364,
      "ams": 6365,
      "ammon": 6366,
      "symmetric": 6367,
      "outstanding": 6368,
      "304": 6369,
      "producing": 6370,
      "1007": 6371,
      "Beijing": 6372,
      "remained": 6373,
      "residence": 6374,
      "proportion": 6375,
      "called": 6376,
      "Stra": 6377,
      "g1": 6378,
      "inlet": 6379,
      "phur": 6380,
      "outlet": 6381,
      "Mode": 6382,
      "AND": 6383,
      "thereby": 6384,
      "Sche": 6385,
      "adsorb": 6386,
      "facilitate": 6387,
      "vinyl": 6388,
      "MC": 6389,
      "Pl": 6390,
      "Sul": 6391,
      "pent": 6392,
      "rejection": 6393,
      "isala": 6394,
      "permit": 6395,
      "loid": 6396,
      "catalysis": 6397,
      "ider": 6398,
      "ify": 6399,
      "breath": 6400,
      "contribute": 6401,
      "signals": 6402,
      "potentials": 6403,
      ")),": 6404,
      "Never": 6405,
      "ﬁnal": 6406,
      "163": 6407,
      "Moisala": 6408,
      "throughout": 6409,
      "acsanm": 6410,
      "locate": 6411,
      "balance": 6412,
      "y_H2": 6413,
      "proportional": 6414,
      "ito": 6415,
      "Scientific": 6416,
      "multifunctional": 6417,
      "guide": 6418,
      "table": 6419,
      "ception": 6420,
      "atela": 6421,
      "25e": 6422,
      "186": 6423,
      "causes": 6424,
      "piezoelectric": 6425,
      "resonance": 6426,
      "Similar": 6427,
      "Nitrogen": 6428,
      "230": 6429,
      "rink": 6430,
      "ange": 6431,
      "ented": 6432,
      "Nove": 6433,
      "Stretch": 6434,
      "BA": 6435,
      "IL": 6436,
      "Pb": 6437,
      "Unit": 6438,
      "enge": 6439,
      "sta": 6440,
      "agement": 6441,
      "ott": 6442,
      "132": 6443,
      "138": 6444,
      "Model": 6445,
      "1995": 6446,
      "pubs": 6447,
      "attractive": 6448,
      "challenges": 6449,
      "Germany": 6450,
      "Angew": 6451,
      "S6": 6452,
      "rat": 6453,
      "sca": 6454,
      "summary": 6455,
      "wich": 6456,
      "ales": 6457,
      "ellow": 6458,
      "136": 6459,
      "calculation": 6460,
      "SnO2": 6461,
      "Develop": 6462,
      "November": 6463,
      "Bas": 6464,
      "bub": 6465,
      "e28": 6466,
      "imens": 6467,
      "elong": 6468,
      "syner": 6469,
      "137": 6470,
      "overlap": 6471,
      "tunable": 6472,
      "particularly": 6473,
      "Organ": 6474,
      "established": 6475,
      "monolayer": 6476,
      "expansion": 6477,
      "FW": 6478,
      "TF": 6479,
      "ially": 6480,
      "cher": 6481,
      "ditional": 6482,
      "supplementary": 6483,
      "Ferrocene": 6484,
      "Academ": 6485,
      "NANO": 6486,
      "inhib": 6487,
      "instrum": 6488,
      "already": 6489,
      "desalination": 6490,
      "polymeric": 6491,
      "sonication": 6492,
      "Cl3": 6493,
      "steady": 6494,
      "Kinloch": 6495,
      "Bor": 6496,
      "HM": 6497,
      "S7": 6498,
      "Zeng": 6499,
      "gain": 6500,
      "marg": 6501,
      "vd": 6502,
      "139": 6503,
      "175": 6504,
      "pyl": 6505,
      "generate": 6506,
      "magnification": 6507,
      "technical": 6508,
      "boron": 6509,
      "Academy": 6510,
      "diffusivity": 6511,
      "multilayer": 6512,
      "enhancing": 6513,
      "tru": 6514,
      "Phil": 6515,
      "Polym": 6516,
      "surround": 6517,
      "shielding": 6518,
      "Fe3C": 6519,
      "MR": 6520,
      "Tre": 6521,
      "stronger": 6522,
      "biof": 6523,
      "equipped": 6524,
      "IV": 6525,
      "Lai": 6526,
      "box": 6527,
      "sile": 6528,
      "coil": 6529,
      "iding": 6530,
      "spati": 6531,
      "photoelectron": 6532,
      "contains": 6533,
      "drying": 6534,
      "MENT": 6535,
      "manufacturing": 6536,
      "nanofi": 6537,
      "WF": 6538,
      "dies": 6539,
      "els": 6540,
      "characterize": 6541,
      "sections": 6542,
      "wettability": 6543,
      "AAO": 6544,
      "Bon": 6545,
      "Nag": 6546,
      "spread": 6547,
      "icon": 6548,
      "excess": 6549,
      "173": 6550,
      "steresis": 6551,
      "Cells": 6552,
      "diﬀerence": 6553,
      "Another": 6554,
      "Vilatela": 6555,
      "2d": 6556,
      "Bae": 6557,
      "Gar": 6558,
      "PL": 6559,
      "bam": 6560,
      "yan": 6561,
      "cid": 6562,
      "Inset": 6563,
      "neut": 6564,
      "microstructures": 6565,
      "Electronics": 6566,
      "Supercapacitors": 6567,
      "deionized": 6568,
      "Investigation": 6569,
      "M_": 6570,
      "ação": 6571,
      "etched": 6572,
      "decompo": 6573,
      "ulated": 6574,
      "elsevier": 6575,
      "Lithium": 6576,
      "165": 6577,
      "intercal": 6578,
      "MnO": 6579,
      "architectures": 6580,
      "radical": 6581,
      "039": 6582,
      "wise": 6583,
      "project": 6584,
      "phases": 6585,
      "uma": 6586,
      "neat": 6587,
      "orders": 6588,
      "marked": 6589,
      "index": 6590,
      "inﬁltration": 6591,
      "damping": 6592,
      "voltaic": 6593,
      "Cer": 6594,
      "exchange": 6595,
      "quantum": 6596,
      "vision": 6597,
      "ogene": 6598,
      "issue": 6599,
      "Meng": 6600,
      "cup": 6601,
      "eping": 6602,
      "lens": 6603,
      "inert": 6604,
      "anov": 6605,
      "popul": 6606,
      "moun": 6607,
      "ples": 6608,
      "intermedi": 6609,
      "roscale": 6610,
      "236e": 6611,
      "filter": 6612,
      "thane": 6613,
      "ficial": 6614,
      "spheres": 6615,
      "semiconductor": 6616,
      "y_C2H4": 6617,
      "acoustic": 6618,
      "Press": 6619,
      "tin": 6620,
      "lege": 6621,
      "ract": 6622,
      "propyl": 6623,
      "1300": 6624,
      "assemblies": 6625,
      "class": 6626,
      "Biom": 6627,
      "instance": 6628,
      "Sem": 6629,
      "third": 6630,
      "dimethyl": 6631,
      "acy": 6632,
      "beyond": 6633,
      "306": 6634,
      "arily": 6635,
      "harves": 6636,
      "estingly": 6637,
      "Number": 6638,
      "Scale": 6639,
      "refer": 6640,
      "145": 6641,
      "law": 6642,
      "challenge": 6643,
      "intensities": 6644,
      "Evolution": 6645,
      "suff": 6646,
      "Contents": 6647,
      "Der": 6648,
      "LIB": 6649,
      "irradi": 6650,
      "grew": 6651,
      "hua": 6652,
      "ACNT": 6653,
      "Yin": 6654,
      "Zou": 6655,
      "quist": 6656,
      "195": 6657,
      "33e": 6658,
      "acknowledge": 6659,
      "Interestingly": 6660,
      "Structural": 6661,
      "Dynam": 6662,
      "homepage": 6663,
      "Anal": 6664,
      "FTI": 6665,
      "UK": 6666,
      "wang": 6667,
      "considering": 6668,
      "DWCNT": 6669,
      "ultralong": 6670,
      "configuration": 6671,
      "FTIR": 6672,
      "EG": 6673,
      "Jor": 6674,
      "big": 6675,
      "Thom": 6676,
      "contributed": 6677,
      "157": 6678,
      "1993": 6679,
      "FEI": 6680,
      "spectral": 6681,
      "ranged": 6682,
      "Acknowled": 6683,
      "Scheme": 6684,
      "Fc": 6685,
      "HNO3": 6686,
      "s1": 6687,
      "ake": 6688,
      "analytical": 6689,
      "contained": 6690,
      "hara": 6691,
      "probably": 6692,
      "Conclusion": 6693,
      "fibre": 6694,
      "ussian": 6695,
      "Cp": 6696,
      "just": 6697,
      "ico": 6698,
      "isother": 6699,
      "202": 6700,
      "became": 6701,
      "rents": 6702,
      "transform": 6703,
      "fixed": 6704,
      "fying": 6705,
      "specimens": 6706,
      "Wo": 6707,
      "subject": 6708,
      "401": 6709,
      "cluster": 6710,
      "hole": 6711,
      "included": 6712,
      "fﬁcient": 6713,
      "electrolytes": 6714,
      "printed": 6715,
      "Nevertheless": 6716,
      "Data": 6717,
      "GCNT": 6718,
      "latter": 6719,
      "schem": 6720,
      "ulose": 6721,
      "opto": 6722,
      "traditional": 6723,
      "planes": 6724,
      "9b": 6725,
      "Spin": 6726,
      "jp": 6727,
      "m3": 6728,
      "ori": 6729,
      "pening": 6730,
      "estanding": 6731,
      "responses": 6732,
      "mm2": 6733,
      "Mech": 6734,
      "carpet": 6735,
      "Membrane": 6736,
      "Bao": 6737,
      "hap": 6738,
      "herent": 6739,
      "sibility": 6740,
      "vibr": 6741,
      "College": 6742,
      "utilization": 6743,
      "melting": 6744,
      "Lv": 6745,
      "Pub": 6746,
      "gers": 6747,
      "hr": 6748,
      "ently": 6749,
      "Advances": 6750,
      "illum": 6751,
      "irable": 6752,
      "hinder": 6753,
      "415": 6754,
      "5c": 6755,
      "Ward": 6756,
      "gri": 6757,
      "zoresis": 6758,
      "cessive": 6759,
      "sulphur": 6760,
      "depend": 6761,
      "equations": 6762,
      "industrial": 6763,
      "Silva": 6764,
      "chains": 6765,
      "volumetric": 6766,
      "years": 6767,
      "Att": 6768,
      "revised": 6769,
      "aran": 6770,
      "143": 6771,
      "facile": 6772,
      "ovsk": 6773,
      "stretched": 6774,
      "realized": 6775,
      "uki": 6776,
      "Nyquist": 6777,
      "Each": 6778,
      "Red": 6779,
      "Radi": 6780,
      "formal": 6781,
      "pression": 6782,
      "biom": 6783,
      "importance": 6784,
      "gaps": 6785,
      "controllable": 6786,
      "Development": 6787,
      "Long": 6788,
      "bimetallic": 6789,
      "flat": 6790,
      "insig": 6791,
      "lli": 6792,
      "applicable": 6793,
      "Continuous": 6794,
      "Andre": 6795,
      "Mini": 6796,
      "Top": 6797,
      "e7": 6798,
      "atile": 6799,
      "unc": 6800,
      "acts": 6801,
      "154": 6802,
      "interests": 6803,
      "146": 6804,
      "Graph": 6805,
      "Bal": 6806,
      "uter": 6807,
      "won": 6808,
      "aser": 6809,
      "discre": 6810,
      "disordered": 6811,
      "305": 6812,
      "mith": 6813,
      "spinn": 6814,
      "extracted": 6815,
      "_per_NP": 6816,
      "camera": 6817,
      "flexibility": 6818,
      "Environmental": 6819,
      "Fish": 6820,
      "Rs": 6821,
      "mask": 6822,
      "tool": 6823,
      "coeﬃcient": 6824,
      "compris": 6825,
      "Ti3": 6826,
      "front": 6827,
      "3O4": 6828,
      "Er": 6829,
      "ns": 6830,
      "thesis": 6831,
      "orage": 6832,
      "sides": 6833,
      "expressed": 6834,
      "loop": 6835,
      "upta": 6836,
      "Conden": 6837,
      "Consider": 6838,
      "Conditions": 6839,
      "calculate": 6840,
      "determination": 6841,
      "collector": 6842,
      "_per_molecule": 6843,
      "Edu": 6844,
      "205": 6845,
      "except": 6846,
      "sizing": 6847,
      "eller": 6848,
      "bright": 6849,
      "Hybrid": 6850,
      "Film": 6851,
      "United": 6852,
      "ACNTs": 6853,
      "Other": 6854,
      "cata": 6855,
      "strates": 6856,
      "quasi": 6857,
      "152": 6858,
      "Nik": 6859,
      "promoter": 6860,
      "finan": 6861,
      "stacked": 6862,
      "n_C_per_molecule": 6863,
      "sandwich": 6864,
      "3000": 6865,
      "C6": 6866,
      "Hel": 6867,
      "e16": 6868,
      "ﬁcial": 6869,
      "agents": 6870,
      "izes": 6871,
      "260": 6872,
      "introducing": 6873,
      "ranges": 6874,
      "environmental": 6875,
      "Green": 6876,
      "ﬁnancial": 6877,
      "sch": 6878,
      "isation": 6879,
      "mostly": 6880,
      "held": 6881,
      "ualization": 6882,
      "depicted": 6883,
      "Fisher": 6884,
      "013": 6885,
      "C_": 6886,
      "DE": 6887,
      "Hof": 6888,
      "Ori": 6889,
      "ame": 6890,
      "sublim": 6891,
      "preser": 6892,
      "STR": 6893,
      "impurity": 6894,
      "vanostatic": 6895,
      "breathing": 6896,
      "Jorio": 6897,
      "095": 6898,
      "Light": 6899,
      "wald": 6900,
      "adding": 6901,
      "forma": 6902,
      "symmet": 6903,
      "ERS": 6904,
      "remarkable": 6905,
      "BET": 6906,
      "C5": 6907,
      "Ir": 6908,
      "Jpn": 6909,
      "SG": 6910,
      "Smith": 6911,
      "VN": 6912,
      "vature": 6913,
      "tox": 6914,
      "204": 6915,
      "washed": 6916,
      "actual": 6917,
      "hysteresis": 6918,
      "intertube": 6919,
      "149": 6920,
      "generator": 6921,
      "histor": 6922,
      "suspended": 6923,
      "slip": 6924,
      "accomp": 6925,
      "proto": 6926,
      "obj": 6927,
      "currently": 6928,
      "electrically": 6929,
      "behaviors": 6930,
      "reaches": 6931,
      "DWNTs": 6932,
      "polarized": 6933,
      "isotropy": 6934,
      "struction": 6935,
      "proﬁles": 6936,
      "reinforcement": 6937,
      "Today": 6938,
      "numerous": 6939,
      "bubb": 6940,
      "GD": 6941,
      "clar": 6942,
      "sq": 6943,
      "sted": 6944,
      "raw": 6945,
      "accept": 6946,
      "semi": 6947,
      "Reaction": 6948,
      "demonstrating": 6949,
      "attrib": 6950,
      "nonlinear": 6951,
      "ova": 6952,
      "tuning": 6953,
      "Strong": 6954,
      "Ban": 6955,
      "Camp": 6956,
      "ec": 6957,
      "rof": 6958,
      "always": 6959,
      "urations": 6960,
      "compare": 6961,
      "lot": 6962,
      "interconnected": 6963,
      "mechanically": 6964,
      "carbide": 6965,
      "C_delivered": 6966,
      ")–": 6967,
      "Air": 6968,
      "Average": 6969,
      "Bur": 6970,
      "dB": 6971,
      "onset": 6972,
      "aring": 6973,
      "unloading": 6974,
      "ille": 6975,
      "007": 6976,
      "contents": 6977,
      "284": 6978,
      "285": 6979,
      "ACT": 6980,
      "purpose": 6981,
      "bars": 6982,
      "BMIT": 6983,
      "SUBMIT": 6984,
      "XXX": 6985,
      "specimen": 6986,
      "SUBMITTED": 6987,
      "S11": 6988,
      "bath": 6989,
      "mas": 6990,
      "infiltration": 6991,
      "referred": 6992,
      "eled": 6993,
      "pretreatment": 6994,
      "1500": 6995,
      "tempera": 6996,
      "transparen": 6997,
      "Storage": 6998,
      "Second": 6999,
      "millimeter": 7000,
      "Terms": 7001,
      "PEM": 7002,
      "Yong": 7003,
      "ligh": 7004,
      "⎢⎢": 7005,
      "⎥⎥": 7006,
      "atten": 7007,
      "209": 7008,
      "dioxide": 7009,
      "amoto": 7010,
      "proved": 7011,
      "format": 7012,
      "scaled": 7013,
      "7870": 7014,
      "scientific": 7015,
      "ometric": 7016,
      "TSV": 7017,
      "Silicon": 7018,
      "045": 7019,
      "Mod": 7020,
      "Pol": 7021,
      "ripening": 7022,
      "lists": 7023,
      "matically": 7024,
      "limits": 7025,
      "quantity": 7026,
      "comparing": 7027,
      "xxx": 7028,
      "durability": 7029,
      "Chinese": 7030,
      "8b": 7031,
      "H5": 7032,
      "sson": 7033,
      "sparen": 7034,
      "thicker": 7035,
      "dispersive": 7036,
      "effor": 7037,
      "CSA": 7038,
      "IF": 7039,
      "IO": 7040,
      "RF": 7041,
      "nom": 7042,
      "currents": 7043,
      "tively": 7044,
      "Conf": 7045,
      "ﬁelds": 7046,
      "Yoon": 7047,
      "immersed": 7048,
      "profile": 7049,
      "KMO": 7050,
      "fted": 7051,
      "her": 7052,
      "rs": 7053,
      "rpm": 7054,
      "tu": 7055,
      "sia": 7056,
      "sustain": 7057,
      "cantile": 7058,
      "central": 7059,
      "noise": 7060,
      "NiCo": 7061,
      "limiting": 7062,
      "benzene": 7063,
      "Stretchable": 7064,
      "7b": 7065,
      "CCVD": 7066,
      "Hauge": 7067,
      "RGO": 7068,
      "Tong": 7069,
      "grant": 7070,
      "oh": 7071,
      "tetra": 7072,
      "etting": 7073,
      "acces": 7074,
      "disorder": 7075,
      "outside": 7076,
      "240": 7077,
      "resultant": 7078,
      "trated": 7079,
      "holes": 7080,
      "dominated": 7081,
      "foils": 7082,
      "constitu": 7083,
      "Can": 7084,
      "Dal": 7085,
      "Elas": 7086,
      "aver": 7087,
      "dash": 7088,
      "sink": 7089,
      "Fe2O4": 7090,
      "Application": 7091,
      "ultrahigh": 7092,
      "densely": 7093,
      "linking": 7094,
      "colli": 7095,
      "alternative": 7096,
      "But": 7097,
      "Shao": 7098,
      "hab": 7099,
      "rub": 7100,
      "cour": 7101,
      "121": 7102,
      "curvature": 7103,
      "metric": 7104,
      "187": 7105,
      "diffic": 7106,
      "cellular": 7107,
      "axially": 7108,
      "Efficient": 7109,
      "acsnano": 7110,
      "platform": 7111,
      "problem": 7112,
      "bacterial": 7113,
      "Reynolds": 7114,
      "Date": 7115,
      "eh": 7116,
      "his": 7117,
      "jin": 7118,
      "rup": 7119,
      "³,": 7120,
      "ressed": 7121,
      "004": 7122,
      "voltages": 7123,
      "ﬂuence": 7124,
      "elasto": 7125,
      "namely": 7126,
      "fibres": 7127,
      "Shanghai": 7128,
      "transparency": 7129,
      "Ost": 7130,
      "Sens": 7131,
      "hid": 7132,
      "aling": 7133,
      "ando": 7134,
      "progress": 7135,
      "exception": 7136,
      "FeO": 7137,
      "achi": 7138,
      "aseous": 7139,
      "PECVD": 7140,
      "SACNT": 7141,
      "considerable": 7142,
      "AgCl": 7143,
      "heterogene": 7144,
      "technologies": 7145,
      "Fiber": 7146,
      "incorporated": 7147,
      "Strain": 7148,
      "5000": 7149,
      "AP": 7150,
      "EF": 7151,
      "Sug": 7152,
      "stop": 7153,
      "grain": 7154,
      "161": 7155,
      "Hofmann": 7156,
      "history": 7157,
      "CTION": 7158,
      "HF": 7159,
      "MI": 7160,
      "plates": 7161,
      "EMS": 7162,
      "micron": 7163,
      "238": 7164,
      "cord": 7165,
      "hydrothermal": 7166,
      "largely": 7167,
      "1994": 7168,
      "Oxide": 7169,
      "periodic": 7170,
      "PPy": 7171,
      "extended": 7172,
      "sufficient": 7173,
      "Ti3C2": 7174,
      "Kon": 7175,
      "ﬂakes": 7176,
      "enrich": 7177,
      "arma": 7178,
      "what": 7179,
      "indenter": 7180,
      "sliding": 7181,
      "ﬁtting": 7182,
      "agglomeration": 7183,
      "freestanding": 7184,
      "reﬂectance": 7185,
      "margins": 7186,
      "sparent": 7187,
      "Eth": 7188,
      "N4": 7189,
      "NCE": 7190,
      "R2": 7191,
      "lum": 7192,
      "ela": 7193,
      "aker": 7194,
      "164": 7195,
      "oule": 7196,
      "laim": 7197,
      "modification": 7198,
      "adily": 7199,
      "York": 7200,
      "ﬁde": 7201,
      "ries": 7202,
      "quick": 7203,
      "linearly": 7204,
      "Interface": 7205,
      "separate": 7206,
      "termination": 7207,
      "AT": 7208,
      "e21": 7209,
      "iness": 7210,
      "CNTN": 7211,
      "difﬁ": 7212,
      "ulos": 7213,
      "amide": 7214,
      "006": 7215,
      "simply": 7216,
      "Relat": 7217,
      "penetration": 7218,
      "Bro": 7219,
      "Hit": 7220,
      "NG": 7221,
      "OM": 7222,
      "Tay": 7223,
      "cust": 7224,
      "alto": 7225,
      "forward": 7226,
      "para": 7227,
      "electrodeposition": 7228,
      "Lie": 7229,
      "oda": 7230,
      "graphs": 7231,
      "graphic": 7232,
      "fields": 7233,
      "Authors": 7234,
      "ertz": 7235,
      "governed": 7236,
      "Devices": 7237,
      "Publishing": 7238,
      "Gong": 7239,
      "gistic": 7240,
      "ken": 7241,
      "tron": 7242,
      "iss": 7243,
      "immobil": 7244,
      "phore": 7245,
      "electrocatalysts": 7246,
      "CoFe2O4": 7247,
      "185": 7248,
      "overcome": 7249,
      "vice": 7250,
      "analyzer": 7251,
      "functions": 7252,
      "suspension": 7253,
      "printing": 7254,
      "Study": 7255,
      "License": 7256,
      "zoresistive": 7257,
      "LU": 7258,
      "Laser": 7259,
      "Pat": 7260,
      "Tal": 7261,
      "aim": 7262,
      "eq": 7263,
      "kHz": 7264,
      "solub": 7265,
      "integr": 7266,
      "error": 7267,
      "Miy": 7268,
      "ribbons": 7269,
      "Wardle": 7270,
      "4d": 7271,
      "DD": 7272,
      "TFT": 7273,
      "past": 7274,
      "yi": 7275,
      "y_Ar": 7276,
      "root": 7277,
      "dip": 7278,
      "ressive": 7279,
      "tel": 7280,
      "moder": 7281,
      "compact": 7282,
      "003": 7283,
      "portion": 7284,
      "tend": 7285,
      "tens": 7286,
      "determining": 7287,
      "Catalysts": 7288,
      "paths": 7289,
      "excited": 7290,
      "Herein": 7291,
      "chored": 7292,
      "believed": 7293,
      "graphitization": 7294,
      "relaxation": 7295,
      "neighboring": 7296,
      "Attribution": 7297,
      "Qin": 7298,
      "bit": 7299,
      "ld": 7300,
      "tw": 7301,
      "verted": 7302,
      "exclu": 7303,
      "created": 7304,
      "iba": 7305,
      "257": 7306,
      "spired": 7307,
      "management": 7308,
      "licen": 7309,
      "aud": 7310,
      "Revised": 7311,
      "Catalytic": 7312,
      "absorbed": 7313,
      "connects": 7314,
      "hybridi": 7315,
      "Production": 7316,
      "scaff": 7317,
      "gaseous": 7318,
      "anodes": 7319,
      "mechanics": 7320,
      "spherical": 7321,
      "promote": 7322,
      "denoted": 7323,
      "bamboo": 7324,
      "CB": 7325,
      "Integ": 7326,
      "interact": 7327,
      "Consequently": 7328,
      "incorporation": 7329,
      "Discussion": 7330,
      "statistical": 7331,
      "spatial": 7332,
      "How": 7333,
      "Tx": 7334,
      "Tel": 7335,
      "iro": 7336,
      "knowledge": 7337,
      "anisotropy": 7338,
      "CNTf": 7339,
      "156": 7340,
      "Access": 7341,
      "densification": 7342,
      "errors": 7343,
      "y_C2H2": 7344,
      "Ostwald": 7345,
      "%).": 7346,
      ")]": 7347,
      "017": 7348,
      "Free": 7349,
      "Hwang": 7350,
      "Sever": 7351,
      "XS": 7352,
      "anodic": 7353,
      "veri": 7354,
      "Increas": 7355,
      "153": 7356,
      "improves": 7357,
      "aminar": 7358,
      "entiﬁc": 7359,
      "Transparent": 7360,
      "remaining": 7361,
      "localized": 7362,
      "custom": 7363,
      "/​": 7364,
      "217": 7365,
      "INT": 7366,
      "ade": 7367,
      "tation": 7368,
      "vit": 7369,
      "wan": 7370,
      "percol": 7371,
      "interpre": 7372,
      "serve": 7373,
      "circuits": 7374,
      "cracks": 7375,
      "Tensile": 7376,
      "adopted": 7377,
      "050": 7378,
      "pitch": 7379,
      "xi": 7380,
      "stages": 7381,
      "sim": 7382,
      "decomposed": 7383,
      "segments": 7384,
      "cia": 7385,
      "hypo": 7386,
      "Nanocomposites": 7387,
      "implies": 7388,
      "commun": 7389,
      "scaling": 7390,
      "................................": 7391,
      "computational": 7392,
      "Batteries": 7393,
      "neutral": 7394,
      "Ti3C2Tx": 7395,
      "Gi": 7396,
      "nl": 7397,
      "enlar": 7398,
      "ising": 7399,
      "absolute": 7400,
      "169": 7401,
      "Chan": 7402,
      "desirable": 7403,
      "charges": 7404,
      "last": 7405,
      "involved": 7406,
      "vdW": 7407,
      "2N": 7408,
      "ozone": 7409,
      "enko": 7410,
      "158": 7411,
      "276": 7412,
      "auto": 7413,
      "divided": 7414,
      "ometry": 7415,
      "rectangular": 7416,
      "biosensor": 7417,
      "iii": 7418,
      "closely": 7419,
      "ﬁnd": 7420,
      "chloride": 7421,
      "recipe": 7422,
      "Ara": 7423,
      "Ish": 7424,
      "VT": 7425,
      "event": 7426,
      "rod": 7427,
      "uss": 7428,
      "uting": 7429,
      "dency": 7430,
      "168": 7431,
      "Appen": 7432,
      "354": 7433,
      "49e28": 7434,
      "needs": 7435,
      "maintaining": 7436,
      "possibly": 7437,
      "issues": 7438,
      "Ministry": 7439,
      "Education": 7440,
      "214": 7441,
      "Das": 7442,
      "Mot": 7443,
      "Project": 7444,
      "investigations": 7445,
      "simulated": 7446,
      "modiﬁcation": 7447,
      "shapes": 7448,
      "Matsu": 7449,
      "precipit": 7450,
      "reflectance": 7451,
      "toxic": 7452,
      ",‡": 7453,
      "Pure": 7454,
      "Sa": 7455,
      "whe": 7456,
      "ºC": 7457,
      "asu": 7458,
      "dissoci": 7459,
      "correlated": 7460,
      "capacities": 7461,
      "every": 7462,
      "Rogers": 7463,
      "densified": 7464,
      "starting": 7465,
      "alkal": 7466,
      "GNR": 7467,
      "NIR": 7468,
      "Tom": 7469,
      "ln": 7470,
      "mech": 7471,
      "144": 7472,
      "served": 7473,
      "235": 7474,
      "Most": 7475,
      "CNWF": 7476,
      "phenomena": 7477,
      "Morphology": 7478,
      "propagation": 7479,
      "intermediate": 7480,
      "020": 7481,
      "PBS": 7482,
      "cured": 7483,
      "mmol": 7484,
      "Inde": 7485,
      "izu": 7486,
      "Nanoparticles": 7487,
      "potentially": 7488,
      "initially": 7489,
      "Express": 7490,
      "Xue": 7491,
      "Multiwalled": 7492,
      "adjusted": 7493,
      "0127": 7494,
      "Gro": 7495,
      "Lou": 7496,
      "Oxy": 7497,
      "UNI": 7498,
      "restric": 7499,
      "ropes": 7500,
      "Chou": 7501,
      "Depen": 7502,
      "fabricating": 7503,
      "rings": 7504,
      "ahertz": 7505,
      "summarized": 7506,
      "Bin": 7507,
      "Bel": 7508,
      "KE": 7509,
      "Tsu": 7510,
      "Moham": 7511,
      "nos": 7512,
      "Electrode": 7513,
      "Desalination": 7514,
      "Conductivity": 7515,
      "Spectroscopy": 7516,
      "convection": 7517,
      "candidate": 7518,
      "vibrations": 7519,
      "PubMed": 7520,
      "Bed": 7521,
      "dt": 7522,
      "ctors": 7523,
      "waste": 7524,
      "248": 7525,
      "nov": 7526,
      "introduce": 7527,
      "FeOOH": 7528,
      "Several": 7529,
      "Even": 7530,
      "tai": 7531,
      "ﬁve": 7532,
      "iner": 7533,
      "inate": 7534,
      "ulate": 7535,
      "former": 7536,
      "expen": 7537,
      "mini": 7538,
      "chemically": 7539,
      "special": 7540,
      "pressures": 7541,
      "allowing": 7542,
      "reaching": 7543,
      "carpets": 7544,
      "kinds": 7545,
      "Mizuno": 7546,
      "Organic": 7547,
      "Hitachi": 7548,
      "Patter": 7549,
      "como": 7550,
      "Nanoparticle": 7551,
      "implement": 7552,
      "182": 7553,
      "mono": 7554,
      "cyclo": 7555,
      "Time": 7556,
      "CuS": 7557,
      "photovoltaic": 7558,
      "achieving": 7559,
      "lands": 7560,
      "probes": 7561,
      "switch": 7562,
      "Xiong": 7563,
      "winding": 7564,
      "begin": 7565,
      "Cyclic": 7566,
      "Kine": 7567,
      "matter": 7568,
      "chair": 7569,
      "defe": 7570,
      "itching": 7571,
      "acry": 7572,
      "neur": 7573,
      "capable": 7574,
      "nonlocal": 7575,
      "ﬁtted": 7576,
      "CaCO3": 7577,
      "hours": 7578,
      "solubility": 7579,
      "-,": 7580,
      "211": 7581,
      "660": 7582,
      "Bru": 7583,
      "Brad": 7584,
      "Eb": 7585,
      "gon": 7586,
      "inorganic": 7587,
      "environ": 7588,
      "ander": 7589,
      "cellulose": 7590,
      "lame": 7591,
      "purification": 7592,
      "Crystall": 7593,
      "dashed": 7594,
      "integrity": 7595,
      "(>": 7596,
      "DU": 7597,
      "gor": 7598,
      "nes": 7599,
      "ulomb": 7600,
      "280": 7601,
      "varies": 7602,
      "States": 7603,
      "ScienceDirect": 7604,
      "background": 7605,
      "concluded": 7606,
      "pyrrole": 7607,
      "seems": 7608,
      "ultrasonic": 7609,
      "cantilever": 7610,
      "Ce": 7611,
      "Ham": 7612,
      "LB": 7613,
      "Pal": 7614,
      "Ra": 7615,
      "arom": 7616,
      "³)": 7617,
      "ingu": 7618,
      "itself": 7619,
      "ramp": 7620,
      "micrometer": 7621,
      "H2O2": 7622,
      "fuller": 7623,
      "ships": 7624,
      "ABSTR": 7625,
      "Andrews": 7626,
      "Condens": 7627,
      "ABSTRACT": 7628,
      "545": 7629,
      "OF": 7630,
      "PG": 7631,
      "PMS": 7632,
      "Sur": 7633,
      "cub": 7634,
      "vant": 7635,
      "anchored": 7636,
      "entangle": 7637,
      "aking": 7638,
      "Reference": 7639,
      "synthetic": 7640,
      "oxyl": 7641,
      "488": 7642,
      "photocatalytic": 7643,
      "Previous": 7644,
      "reasonable": 7645,
      "stacking": 7646,
      "Aerosol": 7647,
      "reliable": 7648,
      "financial": 7649,
      "330": 7650,
      "Bra": 7651,
      "deform": 7652,
      "amura": 7653,
      "298": 7654,
      "pró": 7655,
      "mediated": 7656,
      "equipment": 7657,
      "Industrial": 7658,
      "Porous": 7659,
      "Considering": 7660,
      "Oxygen": 7661,
      "e11": 7662,
      "zy": 7663,
      "thor": 7664,
      "influ": 7665,
      "reser": 7666,
      "339": 7667,
      "numerical": 7668,
      "TIM": 7669,
      "induce": 7670,
      "Contact": 7671,
      "Subsequently": 7672,
      "encapsulation": 7673,
      "Systems": 7674,
      "constructed": 7675,
      "C1": 7676,
      "Floating": 7677,
      "Writing": 7678,
      "cc": 7679,
      "mCNT": 7680,
      "aram": 7681,
      "consequence": 7682,
      "vey": 7683,
      "uncertain": 7684,
      "perovsk": 7685,
      "iles": 7686,
      "008": 7687,
      "white": 7688,
      "dye": 7689,
      "_C2": 7690,
      "PSS": 7691,
      "wavelengths": 7692,
      "phoretic": 7693,
      "Taw": 7694,
      "osc": 7695,
      "rov": 7696,
      "araj": 7697,
      "mental": 7698,
      "sufﬁcient": 7699,
      "metall": 7700,
      "butanol": 7701,
      "PER": 7702,
      "removing": 7703,
      "Transmission": 7704,
      "satis": 7705,
      "confirm": 7706,
      "Related": 7707,
      "Controlled": 7708,
      "quantitative": 7709,
      "population": 7710,
      "Group": 7711,
      "NO2": 7712,
      "Vaj": 7713,
      "Ze": 7714,
      "ﬁne": 7715,
      "sty": 7716,
      "coales": 7717,
      "aya": 7718,
      "aguchi": 7719,
      "lightweight": 7720,
      "FERE": 7721,
      "takes": 7722,
      "locations": 7723,
      "Name": 7724,
      "kyo": 7725,
      "enzy": 7726,
      "believe": 7727,
      "Fourier": 7728,
      "C7": 7729,
      "Jang": 7730,
      "readily": 7731,
      "apore": 7732,
      "ancement": 7733,
      "275": 7734,
      "TIMs": 7735,
      "1992": 7736,
      "Role": 7737,
      "consisted": 7738,
      "Singapore": 7739,
      "existing": 7740,
      "Ultr": 7741,
      "contributions": 7742,
      "burg": 7743,
      "ﬁller": 7744,
      "spark": 7745,
      "Mer": 7746,
      "Yi": 7747,
      "digital": 7748,
      "dif": 7749,
      "ablation": 7750,
      "hyd": 7751,
      "minor": 7752,
      "lassi": 7753,
      "Microwave": 7754,
      "explore": 7755,
      "Absorption": 7756,
      "transitions": 7757,
      "resistive": 7758,
      "inserted": 7759,
      "Vajtai": 7760,
      "FERENCE": 7761,
      "Fuel": 7762,
      "Sto": 7763,
      "Sak": 7764,
      "SERS": 7765,
      "203": 7766,
      "else": 7767,
      "India": 7768,
      "opposite": 7769,
      "35e": 7770,
      "veness": 7771,
      "stiﬀ": 7772,
      "detach": 7773,
      "REFERENCE": 7774,
      "NaCl": 7775,
      "utilizing": 7776,
      "reasons": 7777,
      "conclusion": 7778,
      "Semic": 7779,
      "019": 7780,
      "024": 7781,
      "Tri": 7782,
      "ku": 7783,
      "incre": 7784,
      "ente": 7785,
      "delamin": 7786,
      "poulos": 7787,
      "Through": 7788,
      "287": 7789,
      "superhydrophobic": 7790,
      "media": 7791,
      "represented": 7792,
      "carboxyl": 7793,
      "Good": 7794,
      "insertion": 7795,
      "framework": 7796,
      "213": 7797,
      "Tex": 7798,
      "don": 7799,
      "fitting": 7800,
      "curved": 7801,
      "Endo": 7802,
      "270": 7803,
      "manip": 7804,
      "Schul": 7805,
      "skin": 7806,
      "geometric": 7807,
      "enabled": 7808,
      "passi": 7809,
      "Acknowledgments": 7810,
      "heterogeneous": 7811,
      "licensed": 7812,
      "whether": 7813,
      "414": 7814,
      "LTO": 7815,
      "SD": 7816,
      "yy": 7817,
      "†).": 7818,
      "nanoﬁbers": 7819,
      "focal": 7820,
      "hashi": 7821,
      "waves": 7822,
      "inject": 7823,
      "Despite": 7824,
      "amente": 7825,
      "voids": 7826,
      "Rod": 7827,
      "ek": 7828,
      "hl": 7829,
      "lated": 7830,
      "isson": 7831,
      "expon": 7832,
      "agi": 7833,
      "cker": 7834,
      "analyze": 7835,
      "characterizations": 7836,
      "explo": 7837,
      "elasticity": 7838,
      "Multifunctional": 7839,
      "Ferr": 7840,
      "puriﬁed": 7841,
      "extent": 7842,
      "Meso": 7843,
      "challenging": 7844,
      "enlarged": 7845,
      "REFERENCES": 7846,
      "Ahm": 7847,
      "Eﬀ": 7848,
      "Pot": 7849,
      "Samples": 7850,
      "hind": 7851,
      "pared": 7852,
      "Inﬂuence": 7853,
      "electrocatalyst": 7854,
      "substit": 7855,
      "255": 7856,
      "correl": 7857,
      "Sharma": 7858,
      "355": 7859,
      "Assemb": 7860,
      "carry": 7861,
      "match": 7862,
      "diﬀraction": 7863,
      "abilities": 7864,
      "Structures": 7865,
      "PyC": 7866,
      "Measurement": 7867,
      "Epoxy": 7868,
      "bent": 7869,
      "yen": 7870,
      "reverse": 7871,
      "arti": 7872,
      "undred": 7873,
      "308": 7874,
      "coming": 7875,
      "respective": 7876,
      "CH3": 7877,
      "reactants": 7878,
      "conﬁrm": 7879,
      "voltammo": 7880,
      "twisting": 7881,
      "JC": 7882,
      "station": 7883,
      "ultim": 7884,
      "angan": 7885,
      "adh": 7886,
      "302": 7887,
      "Mo2C": 7888,
      "ards": 7889,
      "arising": 7890,
      "illustrates": 7891,
      "recog": 7892,
      "twisted": 7893,
      "⁻¹.": 7894,
      "010": 7895,
      "Ak": 7896,
      "DSC": 7897,
      "Hao": 7898,
      "SO4": 7899,
      "⁻⁵": 7900,
      "start": 7901,
      "copy": 7902,
      "dix": 7903,
      "whose": 7904,
      "paratus": 7905,
      "Chap": 7906,
      "189": 7907,
      "Lei": 7908,
      "Acad": 7909,
      "aev": 7910,
      "reactors": 7911,
      "transistor": 7912,
      "quali": 7913,
      "Forests": 7914,
      "345": 7915,
      "Dav": 7916,
      "Redu": 7917,
      "hundred": 7918,
      "late": 7919,
      "ﬁlling": 7920,
      "enn": 7921,
      "ulty": 7922,
      "184": 7923,
      "notice": 7924,
      "overpotential": 7925,
      "359": 7926,
      "distingu": 7927,
      "Maj": 7928,
      "coiled": 7929,
      "219": 7930,
      "Ahn": 7931,
      "FP": 7932,
      "Next": 7933,
      "grate": 7934,
      "arding": 7935,
      "ades": 7936,
      "predominant": 7937,
      "1600": 7938,
      "402": 7939,
      "scales": 7940,
      "Natl": 7941,
      "circles": 7942,
      "affects": 7943,
      "helical": 7944,
      "powders": 7945,
      "rotating": 7946,
      "Control": 7947,
      "built": 7948,
      "acquired": 7949,
      "elongation": 7950,
      "Indeed": 7951,
      "Ahmad": 7952,
      "WA": 7953,
      "bl": 7954,
      "once": 7955,
      "uling": 7956,
      "moment": 7957,
      "lift": 7958,
      "listed": 7959,
      "dos": 7960,
      "tensity": 7961,
      "179": 7962,
      "filling": 7963,
      "book": 7964,
      "holder": 7965,
      "choice": 7966,
      "identify": 7967,
      "switching": 7968,
      "Meshot": 7969,
      "global": 7970,
      "machine": 7971,
      "biofil": 7972,
      "323": 7973,
      "Euro": 7974,
      "Fis": 7975,
      "LIG": 7976,
      "PSCs": 7977,
      "Raj": 7978,
      "kJ": 7979,
      "zinc": 7980,
      "”,": 7981,
      "indi": 7982,
      "deriv": 7983,
      "valid": 7984,
      "drops": 7985,
      "ava": 7986,
      "timeter": 7987,
      "uniaxial": 7988,
      "relationships": 7989,
      "BNNTs": 7990,
      "Colloid": 7991,
      "cleaned": 7992,
      "templates": 7993,
      "resonant": 7994,
      "DCNTA": 7995,
      "Detail": 7996,
      "instrument": 7997,
      "harvesting": 7998,
      "Are": 7999
    },
    "merges": [
      "t h",
      "a n",
      "e r",
      "o n",
      "i n",
      "a t",
      "r e",
      "th e",
      "a l",
      "e n",
      "e d",
      "o f",
      "o r",
      "t i",
      "e s",
      "r o",
      "a r",
      "a s",
      "an d",
      "s t",
      "i c",
      "l e",
      "in g",
      "s i",
      "c t",
      "i s",
      "N T",
      "t o",
      "C NT",
      "c h",
      "at i",
      "e t",
      "i g",
      "en t",
      "c e",
      "d e",
      "i t",
      "h e",
      "l y",
      "ti on",
      "m p",
      "f or",
      "u r",
      "ati on",
      "2 0",
      "c o",
      "u re",
      "d i",
      "an o",
      "u b",
      "c on",
      "r a",
      "u s",
      "o w",
      "u l",
      "o l",
      "v e",
      "w i",
      "1 0",
      "u n",
      "m e",
      "re s",
      "g e",
      "a c",
      "p er",
      "a m",
      "T he",
      "wi th",
      "p ro",
      "ti c",
      "b on",
      "le ct",
      "t er",
      "ar bon",
      "a b",
      "t e",
      "s e",
      "n ano",
      "i l",
      "st r",
      "b e",
      "a p",
      ". ;",
      "a re",
      "d u",
      "CNT s",
      "p o",
      "v er",
      "ig h",
      "t ub",
      "i m",
      "p e",
      "e lect",
      "b y",
      "at e",
      "m o",
      "er e",
      "ic al",
      "c arbon",
      "w as",
      "p h",
      "an g",
      "F ig",
      "20 1",
      "al l",
      "c i",
      "p l",
      "a d",
      "at er",
      "s h",
      "it y",
      "at ed",
      "al y",
      "e l",
      "co mp",
      "u m",
      "for m",
      "r i",
      "ro m",
      "e x",
      "si t",
      "0 0",
      "w h",
      "th at",
      "l es",
      "m ent",
      "q u",
      "p ar",
      "a ge",
      "r an",
      "c tion",
      "ro w",
      ") .",
      "v i",
      "- -",
      "= =",
      "e m",
      "nano tub",
      "I n",
      "f f",
      "h igh",
      "f rom",
      "u t",
      "l o",
      "at aly",
      "a y",
      "th er",
      "es s",
      "s u",
      "a ct",
      "an ce",
      "un d",
      "g row",
      "o m",
      "c ataly",
      "i r",
      "et er",
      "20 0",
      "w ere",
      "al s",
      "h y",
      "a ce",
      "a g",
      "i d",
      "T h",
      "l l",
      "w e",
      "sh ow",
      "a in",
      "elect ro",
      "c ti",
      "c an",
      "at ure",
      "f o",
      "l ow",
      "1 1",
      "o t",
      "p or",
      "b er",
      "h a",
      "ic h",
      "cataly st",
      "con t",
      "i z",
      "si on",
      "c re",
      "in e",
      "d en",
      "e ct",
      "L i",
      "o us",
      "t s",
      "N ano",
      ") ,",
      "elect r",
      "s y",
      "o b",
      "a k",
      "V A",
      "u ct",
      "o d",
      "p re",
      "al ly",
      "l i",
      "en e",
      "ab le",
      "comp o",
      "1 5",
      "s a",
      "on g",
      "g y",
      "cre as",
      "sit y",
      "ig n",
      "ur f",
      "1 2",
      ". ,",
      "s ub",
      "c ur",
      "te mp",
      "wh ich",
      "grow th",
      "n e",
      "er ature",
      "g ra",
      "str uct",
      "am eter",
      "S W",
      "d o",
      "en ce",
      "t ed",
      "si s",
      "i b",
      "c ess",
      "ater i",
      "f er",
      "o ur",
      "Fig ure",
      "1 9",
      "1 3",
      "nanotub es",
      "par tic",
      "s pe",
      "s or",
      "s urf",
      "en g",
      "temp erature",
      "p res",
      "1 6",
      "ti es",
      "C h",
      "v ed",
      "t en",
      "2 5",
      "ch an",
      "F e",
      "t ran",
      "E M",
      "in ter",
      "g en",
      "C he",
      "d es",
      "ro s",
      "m et",
      "struct ure",
      "si tion",
      "Che m",
      "d is",
      "ch em",
      "== ==",
      "at ing",
      "] .",
      "-- -",
      "ra y",
      "c ed",
      "cti ve",
      "u tion",
      "1 4",
      "P age",
      "n i",
      "c ap",
      "c al",
      "d er",
      "m ic",
      "C o",
      "surf ace",
      "u p",
      "c m",
      "sa mp",
      "n the",
      "ay er",
      "ch ar",
      "Z h",
      "ation s",
      "re n",
      "fo re",
      "d ing",
      "l u",
      "us ing",
      "R e",
      "a ch",
      "in creas",
      "n m",
      "C arbon",
      "al ign",
      "nanotub e",
      "5 0",
      "th is",
      "u g",
      "s ol",
      "di ameter",
      "c y",
      "tran s",
      "l ayer",
      "i mp",
      "m in",
      "m al",
      "2 2",
      "pro cess",
      "at es",
      "N P",
      "v ity",
      "res ul",
      "con du",
      "t ing",
      "1 8",
      "di ff",
      "m s",
      "b et",
      "sy nthe",
      "P hy",
      "o ut",
      "3 0",
      "w all",
      "me th",
      "1 7",
      "m ateri",
      "Phy s",
      "s er",
      "gra ph",
      "an t",
      "m b",
      "v ol",
      "r ic",
      "C V",
      "2 3",
      "si st",
      "si z",
      "us ed",
      "o x",
      "sub str",
      "partic les",
      "ol o",
      "igh t",
      "v al",
      "de po",
      "ar ray",
      "ug h",
      "d ro",
      "ha ve",
      "w or",
      "chem ical",
      "m er",
      "s p",
      "o p",
      "s ing",
      "den sity",
      "c a",
      "we en",
      "S ci",
      "di tion",
      "m a",
      "at om",
      "c or",
      "pro per",
      "bet ween",
      "cap ac",
      "c ent",
      "as ed",
      "in d",
      "v es",
      "t ain",
      "per form",
      "f il",
      "e ff",
      "s en",
      "electr on",
      "Th is",
      "il ity",
      "align ed",
      "t y",
      "l ar",
      "as s",
      "as ure",
      "2 1",
      "th an",
      "A l",
      "CV D",
      "M o",
      "er gy",
      "i on",
      "E n",
      "O 2",
      "c ul",
      "r ate",
      "w o",
      "pro du",
      "n ot",
      ") :",
      "me asure",
      "wor k",
      "or g",
      "r y",
      "2 4",
      "2 7",
      "meth od",
      "ﬁ l",
      "ap pl",
      "el d",
      "c es",
      "spe ct",
      "show n",
      "f ter",
      "proper ties",
      "or s",
      "als o",
      "met al",
      "M ater",
      "form ation",
      "tic al",
      "er ent",
      "2 6",
      "re e",
      "me chan",
      "sit es",
      "ar y",
      "M W",
      "m ul",
      "S i",
      "as e",
      "10 0",
      "on e",
      "2 8",
      "ic k",
      "at ter",
      "ac tion",
      "f i",
      "tub e",
      "ther mal",
      "f ur",
      "n o",
      "ar i",
      "s ed",
      "eng th",
      "p y",
      "olo gy",
      "m on",
      "und er",
      "4 0",
      "ul d",
      "si te",
      "b ased",
      "l ength",
      "p on",
      "3 3",
      "ch n",
      "m an",
      "e w",
      "c k",
      "g as",
      "are d",
      "A p",
      "a v",
      "h as",
      "ob ser",
      "p en",
      "o ver",
      "re d",
      "Zh ang",
      "o u",
      "n al",
      "ti al",
      "electro de",
      "es t",
      "po ly",
      "act er",
      "r ation",
      "W ang",
      "ce ll",
      "* *",
      "be en",
      "val u",
      "st u",
      "fore st",
      "p s",
      "ros co",
      "substr ate",
      "_ A",
      "di re",
      "hy dro",
      "res pon",
      "iz ation",
      "the ir",
      "m ol",
      "k e",
      "i de",
      "ati ve",
      "co m",
      "S h",
      "H 2",
      "2 9",
      "l ic",
      "ati o",
      "in to",
      "atom s",
      "us e",
      "ment s",
      "W e",
      "L et",
      "ti ve",
      "re l",
      "r atio",
      "depo sition",
      "t t",
      "N i",
      "un ction",
      "im ent",
      "b o",
      "iz ed",
      "ar d",
      "samp les",
      "ur ing",
      "n ess",
      "ti m",
      "tic ally",
      "ab ility",
      "ren t",
      "cti vity",
      "materi als",
      "r on",
      "l ine",
      "Ap pl",
      "E lect",
      "3 5",
      "capac it",
      "S EM",
      "ag es",
      "v ic",
      "4 5",
      "A d",
      "t re",
      "mo re",
      "res pe",
      "A s",
      "synthe sis",
      "per iment",
      "c le",
      "C on",
      "it s",
      "a fter",
      "en ergy",
      "ro ugh",
      "v ap",
      "t ra",
      "f ic",
      "compo site",
      "ctive ly",
      "v en",
      "ob tain",
      "ti me",
      "VA CNT",
      "_ NP",
      "ber s",
      "ar ch",
      "==== ====",
      "th o",
      "do i",
      "s o",
      "ab ric",
      "d y",
      "samp le",
      "s he",
      "show s",
      "i le",
      "pres ent",
      ". -",
      "act or",
      "/ /",
      "3 9",
      "6 0",
      "perform ance",
      "ri b",
      "or ph",
      "A r",
      "high er",
      "compo sites",
      "du e",
      "w ater",
      "el l",
      "wall ed",
      "s cal",
      "su p",
      "an aly",
      "si g",
      "t al",
      "array s",
      "por ted",
      "diff erent",
      "sing le",
      "e ver",
      "d ed",
      "h tt",
      "pe ak",
      "cur rent",
      "R am",
      ": //",
      "T e",
      "3 8",
      "Let t",
      "resul ts",
      "re sist",
      "appl ic",
      "T EM",
      "SW CNTs",
      "i e",
      "re g",
      "are a",
      "th ick",
      "char acter",
      "SW NT",
      "m all",
      "v ari",
      "y l",
      "D e",
      "por t",
      "st ra",
      "obser ved",
      "S t",
      "m m",
      "c ar",
      "t wo",
      "ros s",
      "R es",
      "grow n",
      "6 6",
      "char ge",
      "Ram an",
      "a o",
      "respe ctively",
      "mic ro",
      "a u",
      "ar t",
      "4 4",
      "Li u",
      "ic s",
      "L e",
      "vap or",
      "is h",
      "de vic",
      "i ent",
      "in t",
      "3 7",
      "it e",
      "a i",
      "s ure",
      "n um",
      "o ther",
      "st em",
      "condu ctivity",
      "A C",
      "con cent",
      "c lu",
      "electr ical",
      "f abric",
      "s ti",
      "ind ic",
      "# #",
      "l ed",
      "graph ene",
      "su ch",
      "s c",
      "p tion",
      "f unction",
      "d s",
      "w w",
      ". .",
      "lo ad",
      "mul ti",
      "siz e",
      "re du",
      "ac k",
      "a il",
      "p ed",
      "sol ution",
      "b und",
      "to tal",
      "su per",
      "ex periment",
      "3 6",
      "F or",
      "is sion",
      "P ro",
      "tub es",
      "mo de",
      "st e",
      "th rough",
      "201 6",
      "eff ect",
      "me mb",
      "im ages",
      "memb ran",
      "spe ci",
      "VA CNTs",
      "i es",
      "obtain ed",
      "wh ere",
      "electro des",
      "Ad v",
      "M e",
      "ow ever",
      "ty p",
      "resist ance",
      "T I",
      "s mall",
      "the se",
      "scal e",
      "cont ro",
      "re action",
      "3 4",
      "s ul",
      "d uring",
      "w a",
      "mechan ical",
      "P a",
      "re qu",
      "sy stem",
      "b le",
      "qu e",
      "S T",
      "I t",
      "m ain",
      "m i",
      "ran ge",
      "poly mer",
      "str ib",
      "A n",
      "an e",
      "n ing",
      "en h",
      "tic le",
      "f e",
      "structure s",
      "rosco py",
      "un i",
      "Sci ence",
      "our nal",
      "f ra",
      "5 5",
      "con dition",
      "ve lo",
      "S C",
      "er s",
      "di strib",
      "increas e",
      "SW CNT",
      "lar ge",
      "1 e",
      "f ul",
      "trans fer",
      "sen sor",
      "at a",
      "she et",
      "M ateri",
      "co l",
      "Co mp",
      "w ell",
      "s et",
      "o s",
      "materi al",
      "nano particles",
      "siz ed",
      "i ed",
      "8 0",
      "] ,",
      "stra in",
      "9 9",
      "o c",
      "re actor",
      "en cy",
      "ver tically",
      "o to",
      "de creas",
      "cy c",
      "ﬂ ow",
      "htt ps",
      "p a",
      "ri d",
      "sor ption",
      "4 7",
      "imp ro",
      "E D",
      "num ber",
      "3 2",
      "f ac",
      "l ing",
      "l as",
      "ren g",
      "d et",
      "or der",
      "ry st",
      "mo le",
      "bo th",
      "cont act",
      "201 7",
      "9 0",
      "l in",
      "fil m",
      "po ten",
      "i al",
      "4 8",
      "T i",
      "m at",
      "n it",
      "partic le",
      "K im",
      "chn ology",
      "C u",
      "l ong",
      "ti g",
      "con d",
      "A N",
      "f low",
      "H owever",
      "re ported",
      "thick ness",
      "co uld",
      "o un",
      "6 7",
      "Materi als",
      "reng th",
      "gen er",
      "S e",
      "Ch en",
      "U ni",
      "p le",
      "vol t",
      "i o",
      "En g",
      "4 9",
      "m orph",
      "an ced",
      "p ow",
      "201 5",
      "T o",
      "concent ration",
      "typ ical",
      "201 4",
      "e arch",
      "D i",
      "ar k",
      "ir on",
      "stu dy",
      "de pen",
      "ﬁ c",
      "applic ations",
      "er o",
      "analy sis",
      "or t",
      "a mp",
      "distrib ution",
      "ow n",
      "st rength",
      "C F",
      "n et",
      "ﬁl m",
      "pre p",
      "se cond",
      "low er",
      "sig ni",
      "c ene",
      "b ut",
      "2 O",
      "im age",
      "u st",
      "ac ti",
      "ad dition",
      "synthe sized",
      "f ol",
      "ap pro",
      "MW CNTs",
      "pres sure",
      "3 1",
      "fo und",
      "Le e",
      "wh ile",
      "o re",
      "li ke",
      "Elect ro",
      "7 0",
      "Uni ver",
      "measure d",
      "201 8",
      "b and",
      "as t",
      "on ly",
      "l im",
      "ves tig",
      "a x",
      "is tic",
      "ver y",
      "201 3",
      "mo st",
      "ul ar",
      "m il",
      "m ag",
      "C O",
      "m en",
      "20 10",
      "res s",
      "t ure",
      "wh en",
      "les s",
      "vi ew",
      "c ryst",
      "4 6",
      "at ic",
      "dire ct",
      "201 1",
      "ca use",
      "x im",
      "p atter",
      "condition s",
      "m ass",
      "l ight",
      "str y",
      "H u",
      "vi ous",
      "i p",
      "th in",
      "dire ction",
      "st and",
      "L E",
      "tre at",
      "ib le",
      "S 2",
      "spect ra",
      "si de",
      "c ross",
      "e qu",
      "p ur",
      "le x",
      "prep ared",
      "electr ic",
      "7 5",
      "catalyst s",
      "A _",
      "in a",
      "e th",
      "hydro gen",
      "pro vi",
      "cal cul",
      "cor respon",
      "s our",
      "u ch",
      "poten tial",
      "Univer sity",
      "ro cene",
      "19 9",
      "si ble",
      "T able",
      "er ing",
      "car ri",
      "depo sit",
      "in i",
      "cataly tic",
      "h ib",
      "ﬁl ms",
      "p r",
      "fur ther",
      "_ total",
      "increas ed",
      "substr ates",
      "SWNT s",
      "201 2",
      "8 5",
      "in vestig",
      "si lic",
      "s on",
      "t es",
      "stu di",
      "ur al",
      "di ﬀ",
      "es e",
      "b rid",
      "de mon",
      "H e",
      "_ C",
      "ve l",
      "A u",
      "electro chemical",
      "P t",
      "In ter",
      "de velo",
      "ent s",
      "0 5",
      "l ish",
      "Q _",
      "N o",
      "201 9",
      "cur sor",
      "O n",
      "g o",
      "the n",
      "m ay",
      "th ere",
      "e ction",
      "e le",
      "P E",
      "ﬁ bers",
      "i eld",
      "H igh",
      "po s",
      "se l",
      "compo sition",
      "in u",
      "patter n",
      "ten si",
      "demon str",
      "ct ed",
      "ox ide",
      "am in",
      "b u",
      "mole cul",
      "mode l",
      "membran e",
      "par ameter",
      "du al",
      "P o",
      "e ach",
      "ar n",
      "00 0",
      "at t",
      "mi x",
      "4 3",
      "layer s",
      "sa me",
      "i stry",
      "u te",
      "u me",
      "ver age",
      "p ic",
      "J ournal",
      "he at",
      "g er",
      "al ity",
      "devic es",
      "te ch",
      "ect s",
      "Th ere",
      "h o",
      ": **",
      "fil ms",
      "mechan is",
      "g re",
      "_ metal",
      "p ing",
      "ut ed",
      "ect ed",
      "i a",
      "ra di",
      "ﬂ u",
      "6 5",
      "comp ared",
      "n er",
      "200 9",
      "sc cm",
      "bund les",
      "fer rocene",
      "par t",
      "ine ering",
      "t ch",
      "treat ment",
      "s can",
      "M S",
      "d eter",
      "ro du",
      "P T",
      "valu es",
      "ph ase",
      "de f",
      "fol low",
      "m ed",
      "4 2",
      "ph oto",
      "ST P",
      "R o",
      "function al",
      "ex hib",
      "al ong",
      "ll ed",
      "v ing",
      "n on",
      "8 7",
      "h i",
      "A c",
      "st re",
      "valu e",
      "9 5",
      "en ti",
      "N _metal",
      "a ir",
      "ano l",
      "ge l",
      "em ission",
      "S ch",
      "200 8",
      "pow er",
      "S y",
      "P D",
      "p t",
      "4 1",
      "it ed",
      "net work",
      "ha vi",
      "pre cursor",
      "S up",
      "i um",
      "resul t",
      "at or",
      "align ment",
      "ox id",
      "qu id",
      "morph ology",
      "MW CNT",
      "ac tive",
      "W h",
      "form ed",
      "l er",
      "TI C",
      "Y ang",
      "Z n",
      "x y",
      "t r",
      "le ad",
      "ox y",
      "th ree",
      "se ction",
      "vi a",
      "Nano tube",
      "R TIC",
      "ach ie",
      "RTIC LE",
      "with out",
      "d ent",
      "S u",
      "f ree",
      "forest s",
      "² /",
      "y arn",
      "high ly",
      "S A",
      "or ient",
      "ﬁ eld",
      "si mil",
      "ab out",
      "sour ce",
      "c us",
      "measure ments",
      "F C",
      "cont inu",
      "Th ese",
      "E x",
      "all ic",
      "deposit ed",
      "to p",
      "art z",
      "be havi",
      "simil ar",
      "co ated",
      "be cause",
      "p ri",
      "200 7",
      "di vi",
      "ub lish",
      "f ace",
      "am oun",
      "tech ni",
      "i ang",
      "co ating",
      "f requ",
      "g es",
      "ne al",
      "ww w",
      "AC S",
      "si der",
      "d ata",
      "in clu",
      "uni form",
      "i f",
      "appl ied",
      "chan ge",
      "f ﬁ",
      "se mb",
      "200 6",
      "k g",
      "reg ion",
      "qu artz",
      "l a",
      "cur ves",
      "ﬁ r",
      "vari ous",
      "ro gen",
      "a ero",
      "super capacit",
      "ro und",
      "for ce",
      "volt age",
      "an neal",
      "u sion",
      "h ol",
      "si mul",
      "³ /",
      "ar ly",
      "i ved",
      "ci al",
      "las er",
      "peak s",
      ".. ..",
      "Nano tubes",
      "o v",
      "mo d",
      "Y u",
      "vol ume",
      "electro ly",
      "5 6",
      "20 20",
      "rel ative",
      "y ield",
      "increas ing",
      "S o",
      "yl ene",
      "C E",
      "av g",
      "Chem istry",
      "5 7",
      "por ous",
      "En ergy",
      "st or",
      "ub e",
      "ha o",
      "C H",
      "in du",
      "ar is",
      "n el",
      "pre vious",
      "_ avg",
      "perform ed",
      "c ri",
      "f lu",
      "10 16",
      "Eng ineering",
      "X u",
      "ation al",
      "capacit ance",
      "C N",
      "z ed",
      "9 7",
      "devic e",
      "wi ll",
      "trans port",
      "pro c",
      "fi eld",
      "D O",
      "str ong",
      "ch ang",
      "con sist",
      "silic on",
      "v ation",
      "S I",
      "w t",
      "a verage",
      "par ation",
      "μ m",
      "F E",
      "olo g",
      "produ ced",
      "inter action",
      "f act",
      "in al",
      "li quid",
      "5 8",
      "ad v",
      "Nano te",
      "2O 3",
      "Chem ical",
      "n ace",
      "se qu",
      "Ar ticle",
      "load ing",
      "oxy gen",
      "den si",
      "A_ sub",
      "M n",
      "T ran",
      "ol ar",
      "character istic",
      "b i",
      "st ate",
      "re mo",
      "show ed",
      "O H",
      "T ube",
      "V er",
      "increas es",
      "mechanis m",
      "po xy",
      "Re v",
      "au th",
      "parameter s",
      "C om",
      "CNT _A",
      "CNT_A RTICLE",
      "stre tch",
      "ver ed",
      "M ic",
      "ci ent",
      "3 00",
      "con sider",
      "ar ticle",
      "con f",
      "en ces",
      "cont ain",
      "ﬁ ber",
      "di st",
      "b r",
      "produ ct",
      "200 5",
      "sheet s",
      "ac es",
      "be fore",
      "si ve",
      "c u",
      "mod ul",
      "P S",
      "L u",
      "µ m",
      "spect roscopy",
      "dis per",
      "ste p",
      "st ability",
      "tensi le",
      "cell s",
      "with in",
      "divi dual",
      "calcul ated",
      "fur nace",
      "experiment al",
      "g i",
      "d ic",
      "5 e",
      "m A",
      "m ission",
      "ang le",
      "n u",
      "pres ence",
      "dis charge",
      "sti t",
      "N at",
      "di men",
      "por ting",
      "nit rogen",
      "amoun t",
      "s ph",
      "chn ol",
      "C l",
      "as semb",
      "ful ly",
      "ublish ed",
      "ti l",
      "den ce",
      "eff ic",
      "an ces",
      "cm 2",
      "s k",
      "an y",
      "cont ent",
      "There fore",
      "w ard",
      "su g",
      "dimen sion",
      "ical ly",
      "Zn O",
      "cryst all",
      "ro up",
      "an ti",
      "n am",
      "P h",
      "ar g",
      "w ay",
      "ph ene",
      "he ight",
      "H z",
      "cyc les",
      "6 3",
      "des ign",
      "ac id",
      "impro ve",
      "temperature s",
      "continu ous",
      "c ase",
      "method s",
      "Res earch",
      "p p",
      "A fter",
      "G u",
      "O N",
      "i st",
      "met allic",
      "lar ger",
      "vi ron",
      "9 8",
      "A L",
      "ex pl",
      "produ ction",
      "e poxy",
      "in dividual",
      "op tical",
      "e ctive",
      "200 4",
      "correspon ding",
      "======== ========",
      "o ve",
      ". [",
      "e V",
      "n an",
      "fabric ated",
      "C ataly",
      "ty pe",
      "F ur",
      "B e",
      "st ant",
      "contro l",
      "comp res",
      "Z hao",
      "6 8",
      "behavi or",
      "n ow",
      "ct ing",
      "Si O2",
      "deter min",
      "I G",
      "c ing",
      "fabric ation",
      "ter s",
      "pl ay",
      "imp ort",
      "are n",
      "so me",
      "I I",
      "frequ ency",
      "electroly te",
      "5 2",
      "po sition",
      "3 D",
      "co un",
      "condu ctive",
      "sul fur",
      "me an",
      "ma xim",
      "m uch",
      "pa per",
      "can t",
      "co mb",
      "hy brid",
      "## #",
      "go od",
      "R E",
      "R I",
      "is e",
      "po sed",
      "pl ot",
      "mo di",
      "M a",
      "the y",
      "c er",
      "c lo",
      "int rodu",
      "se e",
      "7 8",
      "S ing",
      "v is",
      "b atter",
      "h es",
      "re present",
      "he ating",
      "ab ove",
      "7 3",
      "ne tic",
      "tim es",
      "capac ity",
      "c _total",
      "enh ance",
      "es tim",
      "ab sorption",
      "wa ve",
      "r ates",
      "DO I",
      "et y",
      "5 4",
      "sp in",
      "G ra",
      "S te",
      "be am",
      "pl as",
      "Te chnology",
      "inter face",
      "atom ic",
      "Zh u",
      "6 9",
      "wo uld",
      "org an",
      "resul ting",
      "% ,",
      "A m",
      "D u",
      "Mo re",
      "tho ugh",
      "oxid ation",
      "ir st",
      "y s",
      "n ed",
      "ﬁ g",
      "st ress",
      "NT s",
      "5 00",
      "diameter s",
      "de li",
      "Po ly",
      "J iang",
      "P ark",
      "in ten",
      "sensor s",
      "g roup",
      "ti vity",
      "0 1",
      "i ties",
      "ate ly",
      "membran es",
      "Zh ou",
      "nu cle",
      "e ﬀ",
      "I D",
      "W u",
      "mic roscopy",
      "requ i",
      "b en",
      "sh ap",
      "studi es",
      "S un",
      "enh anced",
      "ri x",
      "Fur ther",
      "re ve",
      "l it",
      "in ce",
      "al um",
      "ﬁ ed",
      "lex ible",
      "redu ction",
      "6 4",
      "Th er",
      "d ra",
      "rib uted",
      "ail able",
      "con stant",
      "s ci",
      "In t",
      "P re",
      "om et",
      "respon se",
      "Sy nthe",
      "ﬁ cant",
      "C O2",
      "i an",
      "surf aces",
      "A g",
      "eth anol",
      "C 2",
      "G row",
      "spect r",
      "7 7",
      "o per",
      "struct ural",
      "develo ped",
      "qu ality",
      "ver sion",
      "bund le",
      "8 8",
      "th us",
      "fra ction",
      "in ation",
      "b ed",
      "appro ach",
      "mat rix",
      "PD MS",
      "Mo S2",
      "res earch",
      "e fﬁ",
      "diﬀ erent",
      "electron ic",
      "5 9",
      "e mp",
      "cell ent",
      "sen si",
      "5 3",
      "tion al",
      "8 00",
      "t un",
      "le vel",
      "10 00",
      "se en",
      "ci r",
      "molecul es",
      "ad sorption",
      "modul us",
      "In formation",
      "Nano scale",
      "We i",
      "aris on",
      "_A B",
      "contro lled",
      "ﬁc ation",
      "% )",
      "2 e",
      "chan nel",
      "tho se",
      "t ak",
      "on to",
      "import ant",
      "in s",
      "mix ture",
      "sh o",
      "dis cus",
      "signi ﬁcant",
      "am orph",
      "sup port",
      "anneal ing",
      "D _AB",
      "Con t",
      "Al 2O3",
      "op tim",
      "carri ed",
      "ub le",
      "ma de",
      "b ar",
      "maxim um",
      "B M",
      "amorph ous",
      "ce ived",
      "wall s",
      "N_metal _NP",
      "p aren",
      "we ight",
      "ro le",
      "A t",
      "e ven",
      "ac et",
      "Hu ang",
      "b ility",
      "el as",
      "decreas e",
      "stor age",
      "N C",
      "N _NP",
      "pe ct",
      "tho de",
      "do ped",
      "6 e",
      "10 21",
      "lect ed",
      "O 4",
      "s us",
      "0 25",
      "ro om",
      "G O",
      "b re",
      "all ow",
      "on d",
      "ex cellent",
      "man y",
      "E ff",
      "r ing",
      "Synthe sis",
      "techni que",
      "z one",
      "te g",
      "Cataly st",
      "4 00",
      "line ar",
      "acti vity",
      "G as",
      "5 1",
      "ac s",
      "experiment s",
      "fac es",
      "se ver",
      "signi fic",
      "m es",
      "ap pe",
      "de composition",
      "E E",
      "sol id",
      "diff er",
      "f actor",
      "0 2",
      "lo c",
      "oc cur",
      "cor ding",
      "6 1",
      "N a",
      "in j",
      "investig ated",
      "C or",
      "E R",
      "p ly",
      "il lar",
      "h ad",
      "rel ation",
      "d om",
      "Grow th",
      "r u",
      "Ch ina",
      "B N",
      "c rib",
      "en d",
      "fi ed",
      "NP s",
      "sho uld",
      "C ol",
      "htt p",
      "p ul",
      "ce p",
      "J _C",
      "fer ence",
      "0 3",
      "sel f",
      "inten sity",
      "0 4",
      "S oc",
      "str ate",
      "speci fic",
      "Q_ STP",
      "en s",
      "200 3",
      "m ak",
      "re ach",
      "K e",
      "lo s",
      "wi de",
      "ad hes",
      "sug ges",
      "a round",
      "sit u",
      "ca thode",
      "m V",
      "ne w",
      "20 00",
      "pl ane",
      "bu ck",
      "St r",
      "redu ced",
      "v ac",
      "aero gel",
      "S ol",
      "Sup porting",
      "measure ment",
      "v ent",
      "P AN",
      "Elect ron",
      "8 9",
      "g l",
      "g u",
      "S urf",
      "sequ ent",
      "se mic",
      "direct ly",
      "V i",
      "o k",
      "6 2",
      "diff usion",
      "si mp",
      "dy nam",
      "CNT F",
      "Q_ proc",
      "Tran s",
      "ini tial",
      "now led",
      "H y",
      "O R",
      "d own",
      "j ournal",
      "po int",
      "se le",
      "ﬁr st",
      "p per",
      "le y",
      "as on",
      "_ c",
      "iz e",
      "De part",
      "graph i",
      "signific ant",
      "m it",
      "t on",
      "st ine",
      "P ublished",
      "sup ported",
      "V ol",
      "D W",
      "fic ation",
      "a h",
      "0 7",
      "chem atic",
      "characteristic s",
      "8 4",
      "on du",
      "Depart ment",
      "un g",
      "att ributed",
      "spectr um",
      "depen dent",
      "/ (",
      "U _avg",
      "c _A",
      "stand ing",
      "ab sor",
      "applic ation",
      "k _c",
      "demonstr ated",
      "em it",
      "200 2",
      "wa fer",
      "a z",
      "rel ated",
      "achie ved",
      "it ing",
      "ver tical",
      "PAN I",
      "b ul",
      "ph en",
      "3 e",
      "ch ing",
      "st able",
      "m un",
      "a ff",
      "small er",
      "h or",
      "graph ite",
      "as i",
      "to m",
      "indic ates",
      "det ail",
      "l amin",
      "B o",
      "av ailable",
      "Al ign",
      "Me chan",
      "fe ed",
      "In stit",
      "inclu ding",
      "p in",
      "ur a",
      "ag g",
      "crib ed",
      "A b",
      "m is",
      "character ization",
      "show ing",
      "Res ul",
      "ther mo",
      "t est",
      "u um",
      "ur ation",
      "S ub",
      "i di",
      "1 10",
      "impro ved",
      "cep ted",
      "con n",
      "ma il",
      "b in",
      "sever al",
      "C C",
      "d ri",
      "v a",
      "por ts",
      "paren t",
      "do uble",
      "Mic ro",
      "amp le",
      "0 22",
      "M A",
      "effect s",
      "auth ors",
      "H R",
      "p ure",
      "w et",
      "ci ety",
      "bet ter",
      "A ll",
      "Si C",
      "st o",
      "chang es",
      "en tial",
      "7 9",
      "Resul ts",
      "per i",
      "re ct",
      "nano wi",
      "mic rosco",
      "indic ating",
      "los s",
      "re main",
      "i j",
      "speci ﬁc",
      "L C",
      "po re",
      "pri stine",
      "0 8",
      "n or",
      "le t",
      "fi bers",
      "C ross",
      "Phys ics",
      "a di",
      "M AN",
      "res ol",
      "mo sph",
      "of f",
      "re al",
      "p olar",
      "r ical",
      "reve al",
      "estim ated",
      "20 21",
      "in teg",
      "Ch o",
      "More over",
      "U SC",
      "Wh en",
      "r and",
      "pl ac",
      "il l",
      "orient ation",
      "l ack",
      "dimension al",
      "in k",
      "lo y",
      "b ot",
      "um m",
      "M P",
      "fi ber",
      "RI PT",
      "On line",
      "def ects",
      "MAN USC",
      "in side",
      "MANUSC RIPT",
      "deli vered",
      "Th us",
      "7 2",
      "M et",
      "Nanote chnology",
      "elas tic",
      "ment ary",
      "sol ar",
      "sti ll",
      "studi ed",
      "effic ient",
      "S c",
      "u el",
      "i th",
      "Ch ar",
      "process es",
      "eff ective",
      "4 e",
      "carri er",
      "nucle ation",
      "X PS",
      "appro xim",
      "Instit ute",
      "So ciety",
      "m g",
      "op en",
      "tre ated",
      "h ot",
      "indu ced",
      "f ew",
      "S 1",
      "cur ve",
      "0 9",
      "co pper",
      "organ ic",
      "or ig",
      "product s",
      "viron ment",
      "semic ondu",
      "K a",
      "su c",
      "load ed",
      "in um",
      "Sing le",
      "th od",
      "Pro cess",
      "the m",
      "at mosph",
      "ass um",
      "in ed",
      "comp arison",
      "M ar",
      "ã o",
      "present ed",
      "ab or",
      "relative ly",
      "pos sible",
      "ab ly",
      "in set",
      "determin ed",
      "K o",
      "M ul",
      "il lu",
      "l at",
      "cont rib",
      "scan ning",
      "ll ing",
      "n a",
      "iz on",
      "he l",
      "ne ed",
      "ﬁg ure",
      "L in",
      "de g",
      "molecul ar",
      "dist ance",
      "8 6",
      "supercapacit ors",
      "contain ing",
      "ra ction",
      "Align ed",
      "in ci",
      "A F",
      "Comp o",
      "m ac",
      "Re f",
      "Ti O2",
      "i or",
      "system s",
      "R D",
      "vol ution",
      "P ar",
      "0 6",
      "P A",
      "group s",
      "on line",
      "P er",
      "U T",
      "te x",
      "e 23",
      "e vapor",
      "d x",
      "tic s",
      "ul tra",
      "bul k",
      "Q u",
      "Ch eng",
      "9 2",
      "emp loy",
      "pa th",
      "plas ma",
      "a ve",
      "it ation",
      "ad j",
      "f irst",
      "ph ys",
      "Vi ew",
      "Ste p",
      "ch ir",
      "re si",
      "trans mission",
      "ﬂ o",
      "f lexible",
      "re f",
      "u ally",
      "v an",
      "qu es",
      "al le",
      "tran sition",
      "rand om",
      "Mn O2",
      "Ex periment",
      "ro ly",
      "e valu",
      "N W",
      "in ner",
      "ex c",
      "9 6",
      "as sist",
      "15 0",
      "ar row",
      "p ut",
      "u k",
      "vac uum",
      "6 00",
      "b ro",
      "T S",
      "ter ms",
      "follow ing",
      "g ap",
      "comp le",
      "stand ard",
      "lo cal",
      "sion s",
      "Further more",
      "S U",
      "s es",
      "9 1",
      "F an",
      "fac ial",
      "k n",
      "F il",
      "m L",
      "ﬂ ex",
      "u til",
      "supercapacit or",
      "1 20",
      "re in",
      "pl ace",
      "sp un",
      "i k",
      "ge omet",
      "bot tom",
      "as h",
      "fe ature",
      "concent r",
      "plac ed",
      "T G",
      "u de",
      "to ward",
      "ot ro",
      "U n",
      "D es",
      "main tain",
      ".... ....",
      "tion s",
      "in ﬂu",
      "O x",
      "t ration",
      "appe ar",
      "_ Fe",
      "microsco pe",
      "deg ree",
      "7 6",
      "hydro ph",
      "A ct",
      "e i",
      "I T",
      "N ature",
      "th ium",
      "s at",
      "b al",
      "sen sing",
      "D ai",
      "m met",
      "batter ies",
      "2 D",
      "ra p",
      "cy cle",
      "H 4",
      "illu str",
      "u al",
      "z e",
      "W all",
      "p ub",
      "h ar",
      "o g",
      "kn own",
      "per me",
      "g ed",
      "gre at",
      "Mul ti",
      "J o",
      "Re ceived",
      "sh ort",
      "comp on",
      "speci es",
      "h and",
      "am a",
      "f t",
      "or y",
      "develo p",
      "N 2",
      "Te chnol",
      "F rom",
      "fer red",
      "ax is",
      "decreas ed",
      "olog ies",
      "hor izon",
      "ot al",
      "provi de",
      "ver se",
      "TI ON",
      "o id",
      "Gra phene",
      "H ere",
      "b io",
      "con ven",
      "< /",
      "r ich",
      "025 4",
      "O p",
      "e ﬃ",
      "pe cted",
      "S en",
      "com mer",
      "AC CE",
      "spin ning",
      "T otal",
      "co ol",
      "r ang",
      "27 3",
      "resol ution",
      "le ase",
      "d a",
      "200 1",
      "graphi tic",
      "d ry",
      "imp ed",
      "suc cess",
      "ﬂo ating",
      "re ﬂ",
      "S im",
      "m ber",
      "a j",
      "enhance ment",
      "dis play",
      "ple mentary",
      "Ther mal",
      "c l",
      "s light",
      "are al",
      "st atic",
      "X RD",
      "ci ency",
      "ou ter",
      "N_metal _total",
      "Str uct",
      "Com mun",
      "7 1",
      "B ased",
      "sp ace",
      "l or",
      "val ent",
      "consider ed",
      "R u",
      "g ing",
      "N ational",
      "des cribed",
      "ax ial",
      "Ac cepted",
      "Ver tically",
      "ion s",
      "im a",
      "Ke y",
      "shap e",
      "AF M",
      "G a",
      "ex pected",
      "fra ct",
      "PT ED",
      "ACCE PTED",
      "8 2",
      "am ent",
      "Su per",
      "S S",
      "m id",
      "qu anti",
      "h ere",
      "sp ac",
      "imp ur",
      "yarn s",
      "nano particle",
      "i i",
      "ti p",
      "se par",
[...]
